{
  "version": "1.0",
  "truncation": null,
  "padding": null,
  "added_tokens": [
    {
      "id": 0,
      "content": "<|endoftext|>",
      "single_word": false,
      "lstrip": false,
      "rstrip": false,
      "normalized": false,
      "special": true
    },
    {
      "id": 1,
      "content": "<|pad|>",
      "single_word": false,
      "lstrip": false,
      "rstrip": false,
      "normalized": false,
      "special": true
    }
  ],
  "normalizer": null,
  "pre_tokenizer": {
    "type": "ByteLevel",
    "add_prefix_space": true,
    "trim_offsets": true,
    "use_regex": true
  },
  "post_processor": {
    "type": "TemplateProcessing",
    "single": [
      {
        "Sequence": {
          "id": "A",
          "type_id": 0
        }
      }
    ],
    "pair": [
      {
        "Sequence": {
          "id": "A",
          "type_id": 0
        }
      },
      {
        "Sequence": {
          "id": "B",
          "type_id": 1
        }
      }
    ],
    "special_tokens": {}
  },
  "decoder": null,
  "model": {
    "type": "BPE",
    "dropout": null,
    "unk_token": null,
    "continuing_subword_prefix": null,
    "end_of_word_suffix": null,
    "fuse_unk": false,
    "byte_fallback": false,
    "ignore_merges": false,
    "vocab": {
      "<|endoftext|>": 0,
      "<|pad|>": 1,
      "!": 2,
      "\"": 3,
      "#": 4,
      "$": 5,
      "%": 6,
      "&": 7,
      "'": 8,
      "(": 9,
      ")": 10,
      "*": 11,
      "+": 12,
      ",": 13,
      "-": 14,
      ".": 15,
      "/": 16,
      "0": 17,
      "1": 18,
      "2": 19,
      "3": 20,
      "4": 21,
      "5": 22,
      "6": 23,
      "7": 24,
      "8": 25,
      "9": 26,
      ":": 27,
      ";": 28,
      "<": 29,
      "=": 30,
      ">": 31,
      "?": 32,
      "@": 33,
      "A": 34,
      "B": 35,
      "C": 36,
      "D": 37,
      "E": 38,
      "F": 39,
      "G": 40,
      "H": 41,
      "I": 42,
      "J": 43,
      "K": 44,
      "L": 45,
      "M": 46,
      "N": 47,
      "O": 48,
      "P": 49,
      "Q": 50,
      "R": 51,
      "S": 52,
      "T": 53,
      "U": 54,
      "V": 55,
      "W": 56,
      "X": 57,
      "Y": 58,
      "Z": 59,
      "[": 60,
      "\\": 61,
      "]": 62,
      "_": 63,
      "`": 64,
      "a": 65,
      "b": 66,
      "c": 67,
      "d": 68,
      "e": 69,
      "f": 70,
      "g": 71,
      "h": 72,
      "i": 73,
      "j": 74,
      "k": 75,
      "l": 76,
      "m": 77,
      "n": 78,
      "o": 79,
      "p": 80,
      "q": 81,
      "r": 82,
      "s": 83,
      "t": 84,
      "u": 85,
      "v": 86,
      "w": 87,
      "x": 88,
      "y": 89,
      "z": 90,
      "{": 91,
      "|": 92,
      "}": 93,
      "~": 94,
      "¡": 95,
      "¢": 96,
      "£": 97,
      "¤": 98,
      "¥": 99,
      "¦": 100,
      "§": 101,
      "¨": 102,
      "©": 103,
      "ª": 104,
      "«": 105,
      "¬": 106,
      "®": 107,
      "¯": 108,
      "°": 109,
      "±": 110,
      "²": 111,
      "³": 112,
      "´": 113,
      "µ": 114,
      "¶": 115,
      "·": 116,
      "¸": 117,
      "¹": 118,
      "º": 119,
      "»": 120,
      "¼": 121,
      "½": 122,
      "¾": 123,
      "¿": 124,
      "Â": 125,
      "Ã": 126,
      "Å": 127,
      "Æ": 128,
      "Ë": 129,
      "â": 130,
      "ĉ": 131,
      "Ċ": 132,
      "Ġ": 133,
      "Ģ": 134,
      "Ĥ": 135,
      "ĥ": 136,
      "Ħ": 137,
      "ħ": 138,
      "Ĩ": 139,
      "ī": 140,
      "Ĭ": 141,
      "ĳ": 142,
      "Ĵ": 143,
      "ĵ": 144,
      "ĺ": 145,
      "Ļ": 146,
      "ļ": 147,
      "ľ": 148,
      "Ŀ": 149,
      "ŀ": 150,
      "ł": 151,
      "Ń": 152,
      "he": 153,
      "Ġt": 154,
      "Ġa": 155,
      "Ġs": 156,
      "Ġw": 157,
      "nd": 158,
      "Ġthe": 159,
      "ed": 160,
      "Ġand": 161,
      "Ġto": 162,
      "Ġb": 163,
      "in": 164,
      "Ġh": 165,
      "Ġwa": 166,
      "re": 167,
      "ou": 168,
      "Ġf": 169,
      "it": 170,
      "Ġl": 171,
      "Ġc": 172,
      "Ġd": 173,
      "er": 174,
      "Ġhe": 175,
      "Ġm": 176,
      "Ġp": 177,
      "Ġwas": 178,
      "ĠT": 179,
      "om": 180,
      "Ġo": 181,
      "ay": 182,
      "ar": 183,
      "is": 184,
      "ing": 185,
      "il": 186,
      "Ġg": 187,
      "id": 188,
      "at": 189,
      "en": 190,
      "Ġn": 191,
      "Ġsa": 192,
      "Ġha": 193,
      "ĠS": 194,
      "ĠThe": 195,
      "an": 196,
      "im": 197,
      "or": 198,
      "on": 199,
      "Ġit": 200,
      "Ġth": 201,
      "ll": 202,
      "le": 203,
      "ĠH": 204,
      "Ġher": 205,
      "ot": 206,
      "et": 207,
      "ir": 208,
      "ĠShe": 209,
      "es": 210,
      "ĠHe": 211,
      "Ġin": 212,
      "ver": 213,
      "ut": 214,
      "ow": 215,
      "ĠThey": 216,
      "ck": 217,
      "Ġe": 218,
      "Ġu": 219,
      "ld": 220,
      "Ġy": 221,
      "oo": 222,
      "Ġsaid": 223,
      "Ġ\"": 224,
      "ig": 225,
      "ily": 226,
      "Ġr": 227,
      "Ġbe": 228,
      "am": 229,
      "Ġst": 230,
      "ĠI": 231,
      "ce": 232,
      "ke": 233,
      "Ġshe": 234,
      "ve": 235,
      "pp": 236,
      "ith": 237,
      "Ġwith": 238,
      "ĠL": 239,
      "On": 240,
      "Ġon": 241,
      "Ġyou": 242,
      "Ġof": 243,
      "ked": 244,
      "ri": 245,
      "Ġso": 246,
      "nt": 247,
      "Ġhis": 248,
      "Ġpl": 249,
      "ad": 250,
      "very": 251,
      "Ġday": 252,
      "Ġthat": 253,
      "ĠLily": 254,
      "Ġup": 255,
      "ĠOn": 256,
      "Ġplay": 257,
      "Ġhad": 258,
      "st": 259,
      "Ġthey": 260,
      "Ġwe": 261,
      "Ġmom": 262,
      "ĠB": 263,
      "Ġfor": 264,
      "el": 265,
      "un": 266,
      "ould": 267,
      "'s": 268,
      "my": 269,
      "The": 270,
      "Ġli": 271,
      "ch": 272,
      "ent": 273,
      "Ġhapp": 274,
      "Ġwant": 275,
      "itt": 276,
      "Ġsh": 277,
      "out": 278,
      "her": 279,
      "Ġdo": 280,
      "ly": 281,
      "Ġnot": 282,
      "ome": 283,
      "se": 284,
      "Ġvery": 285,
      "ound": 286,
      "end": 287,
      "all": 288,
      "Ġwh": 289,
      "ime": 290,
      "ittle": 291,
      "ĠM": 292,
      "Ġk": 293,
      "Ġtime": 294,
      "Ġlittle": 295,
      "al": 296,
      "Ġthere": 297,
      "Ġne": 298,
      "ht": 299,
      "Ġre": 300,
      "Ġhappy": 301,
      "Ġsm": 302,
      "Ġbig": 303,
      "Ġis": 304,
      "ĠIt": 305,
      "ĠĊ": 306,
      "Ġbut": 307,
      "ack": 308,
      "Ġan": 309,
      "Ġsaw": 310,
      "riend": 311,
      ".\"": 312,
      "Ġfriend": 313,
      "ry": 314,
      "Ġas": 315,
      "ra": 316,
      "ide": 317,
      "ake": 318,
      "'t": 319,
      "!\"": 320,
      "ug": 321,
      "Ġloo": 322,
      "ved": 323,
      "ter": 324,
      "Ġwere": 325,
      "ore": 326,
      "Ġlo": 327,
      "ĠOnce": 328,
      "ec": 329,
      "Ġhim": 330,
      "Ġtoo": 331,
      "Ġgo": 332,
      "Ġbo": 333,
      "Ġse": 334,
      "ĠTim": 335,
      "irl": 336,
      "Ġare": 337,
      "Ġj": 338,
      "ard": 339,
      "Ġwanted": 340,
      "ill": 341,
      "Ġgirl": 342,
      "Ġupon": 343,
      "Ġthem": 344,
      "Ġout": 345,
      "ĠA": 346,
      "Ġat": 347,
      "ur": 348,
      "ind": 349,
      "Ġtheir": 350,
      "fu": 351,
      "Ġsp": 352,
      "way": 353,
      "Ġsmil": 354,
      "Ġdid": 355,
      "Ġcould": 356,
      "hen": 357,
      "Ġhave": 358,
      "ain": 359,
      "art": 360,
      "Ġex": 361,
      "ĠJ": 362,
      "hed": 363,
      "rom": 364,
      "Ġwent": 365,
      "Ġar": 366,
      "ic": 367,
      "ĠBen": 368,
      "Ġcan": 369,
      "lp": 370,
      "ful": 371,
      "ood": 372,
      "?\"": 373,
      "hing": 374,
      "Ġfriends": 375,
      "ĠTom": 376,
      "Ġnam": 377,
      "ight": 378,
      "Ġall": 379,
      "Ġhelp": 380,
      "Ġkn": 381,
      "um": 382,
      "ĠOne": 383,
      "one": 384,
      "ark": 385,
      "Ġback": 386,
      "Ġsay": 387,
      "You": 388,
      "Ġfun": 389,
      "Ġcl": 390,
      "are": 391,
      "Ġno": 392,
      "Ġle": 393,
      "op": 394,
      "Ġsmiled": 395,
      "Ġsc": 396,
      "Ġnamed": 397,
      "Ġal": 398,
      "oug": 399,
      "Ġloved": 400,
      "side": 401,
      "elt": 402,
      "Ġman": 403,
      "Ġasked": 404,
      "ick": 405,
      "Ġtoy": 406,
      "Ġlike": 407,
      "Ġfe": 408,
      "Ġfelt": 409,
      "Ġlooked": 410,
      "Ġsome": 411,
      "Ġaround": 412,
      "Ġsee": 413,
      "Ġme": 414,
      "ame": 415,
      "omet": 416,
      "ĠW": 417,
      "Ġro": 418,
      "Ġbr": 419,
      "ure": 420,
      "ĠTimmy": 421,
      "Ġbir": 422,
      "get": 423,
      "ice": 424,
      "Ġboy": 425,
      "Ġwould": 426,
      "Ġstart": 427,
      "ong": 428,
      "Ã¢": 429,
      "âĤ": 430,
      "âĤ¬": 431,
      "ss": 432,
      "Ġbird": 433,
      "Ġsomet": 434,
      "Ġfa": 435,
      "dd": 436,
      "ings": 437,
      "Ġag": 438,
      "Ġwor": 439,
      "Ġwhat": 440,
      "ade": 441,
      "Ġmake": 442,
      "king": 443,
      ",\"": 444,
      "ie": 445,
      "ĠBut": 446,
      "own": 447,
      "Ġtre": 448,
      "Ġran": 449,
      "gether": 450,
      "ĠYou": 451,
      "Ġaway": 452,
      "ag": 453,
      "ared": 454,
      "Ġsays": 455,
      "Ġstarted": 456,
      "oud": 457,
      "if": 458,
      "Ġmade": 459,
      "Ġcar": 460,
      "Ġsomething": 461,
      "Ġtogether": 462,
      "ited": 463,
      "ther": 464,
      "Ġpark": 465,
      "Ġco": 466,
      "Ġsad": 467,
      "Ġother": 468,
      "Ġnew": 469,
      "Ġexc": 470,
      "Ġput": 471,
      "Ġfrom": 472,
      "Ġpr": 473,
      "ell": 474,
      "Ġla": 475,
      "Ġhug": 476,
      "ble": 477,
      "Ġmu": 478,
      "ook": 479,
      "ach": 480,
      "Ġagain": 481,
      "Ġhome": 482,
      "Ġwhen": 483,
      "Ġgood": 484,
      "hat": 485,
      "ep": 486,
      "Ġwho": 487,
      "est": 488,
      "ried": 489,
      "Ġfound": 490,
      "Ġfl": 491,
      "Ġthen": 492,
      "Lily": 493,
      "Ġch": 494,
      "Ġdec": 495,
      "pped": 496,
      "Ġwal": 497,
      "as": 498,
      "Ġget": 499,
      "qu": 500,
      "Ġplaying": 501,
      "ought": 502,
      "One": 503,
      "pl": 504,
      "ĠE": 505,
      "ally": 506,
      "Ġsw": 507,
      "ous": 508,
      "nn": 509,
      "Ġthings": 510,
      "Ġexcited": 511,
      "Ġliked": 512,
      "Ġgot": 513,
      "uck": 514,
      "ro": 515,
      "ided": 516,
      "Ġdecided": 517,
      "Ġbl": 518,
      "ĠMom": 519,
      "ave": 520,
      "ĠD": 521,
      "Ġcame": 522,
      "Ġevery": 523,
      "ara": 524,
      "Ġyour": 525,
      "ax": 526,
      "Ġv": 527,
      "Ġscared": 528,
      "ust": 529,
      "Ġone": 530,
      "Ġdog": 531,
      "Ġdown": 532,
      "ouse": 533,
      "ny": 534,
      "Ġfind": 535,
      "Ġcare": 536,
      "Ġbec": 537,
      "ist": 538,
      "Ġthan": 539,
      "Ġfeel": 540,
      "ap": 541,
      "ue": 542,
      "udd": 543,
      "nna": 544,
      "Ġdad": 545,
      "Ġab": 546,
      "They": 547,
      "Ġmy": 548,
      "Ġlook": 549,
      "Ġke": 550,
      "our": 551,
      "Ġwill": 552,
      "arn": 553,
      "Ġgr": 554,
      "us": 555,
      "nder": 556,
      "Ġgra": 557,
      "ways": 558,
      "ess": 559,
      "Ġdidn": 560,
      "Ġpo": 561,
      "fe": 562,
      "Ġalways": 563,
      "Ġtook": 564,
      "Ġabout": 565,
      "ant": 566,
      "bb": 567,
      "ĠSam": 568,
      "Ġlot": 569,
      "Ġmommy": 570,
      "Ġtoys": 571,
      "Ġkne": 572,
      "ers": 573,
      "ise": 574,
      "ite": 575,
      "Ġoutside": 576,
      "Ġtree": 577,
      "ĠF": 578,
      "Ġthought": 579,
      "Ġball": 580,
      "Ġmore": 581,
      "eci": 582,
      "ened": 583,
      "ched": 584,
      "Ġta": 585,
      "Ġold": 586,
      "Ġho": 587,
      "Ġlearn": 588,
      "ret": 589,
      "Ġint": 590,
      "ged": 591,
      "Ġknow": 592,
      "Ġlaug": 593,
      "Ġtake": 594,
      "ecial": 595,
      "Ġspecial": 596,
      "Ġsor": 597,
      "Ġcat": 598,
      "udden": 599,
      "ĠMax": 600,
      "Ġknew": 601,
      "ive": 602,
      "ia": 603,
      "Ġpe": 604,
      "Ġany": 605,
      "uddenly": 606,
      "Ġtr": 607,
      "fter": 608,
      "Ġhow": 609,
      "ma": 610,
      "Ġshow": 611,
      "ink": 612,
      "ĠSara": 613,
      "Ġsorry": 614,
      "Ġtw": 615,
      "But": 616,
      "Ġmuch": 617,
      "au": 618,
      "ish": 619,
      "Ġrun": 620,
      "and": 621,
      "ĠAnna": 622,
      "Ġhand": 623,
      "Ġsl": 624,
      "ven": 625,
      "Ġhouse": 626,
      "Ġor": 627,
      "Ġop": 628,
      "Ġsk": 629,
      "Ġmo": 630,
      "Ġclo": 631,
      "Ġsun": 632,
      "Ġinto": 633,
      "Ġtried": 634,
      "Ġinside": 635,
      "ate": 636,
      "Ġtold": 637,
      "Ġwater": 638,
      "Ġthis": 639,
      "Ġen": 640,
      "ank": 641,
      "Ġif": 642,
      "Ġproud": 643,
      "ump": 644,
      "Ġqu": 645,
      "Ġover": 646,
      "Ġcouldn": 647,
      "dy": 648,
      "Ġgave": 649,
      "Ġheard": 650,
      "Ġnever": 651,
      "by": 652,
      "Ġeach": 653,
      "ace": 654,
      "Ġroom": 655,
      "ĠEvery": 656,
      "ty": 657,
      "Ġexpl": 658,
      "Ġeat": 659,
      "ĠWe": 660,
      "other": 661,
      "ause": 662,
      "Ġpick": 663,
      "ion": 664,
      "Ġpret": 665,
      "Ġplayed": 666,
      "ge": 667,
      "etter": 668,
      "Ġjust": 669,
      "ak": 670,
      "Ġhugged": 671,
      "Ġgre": 672,
      "Mom": 673,
      "here": 674,
      "Ġoff": 675,
      "Ġcom": 676,
      "Ġwat": 677,
      "oth": 678,
      "Ġbox": 679,
      "Ġnice": 680,
      "'m": 681,
      "Ġstr": 682,
      "Ġbecause": 683,
      "Ġneed": 684,
      "ile": 685,
      "Ġmany": 686,
      "Ġfo": 687,
      "uc": 688,
      "Ġjo": 689,
      "Ġbear": 690,
      "Ġsmall": 691,
      "ĠJo": 692,
      "iz": 693,
      "Ġbu": 694,
      "ving": 695,
      "Ġlong": 696,
      "ine": 697,
      "gry": 698,
      "imal": 699,
      "ort": 700,
      "Ġanimal": 701,
      "Ġsn": 702,
      "ough": 703,
      "Ġtry": 704,
      "ĠJack": 705,
      "Ġunt": 706,
      "ild": 707,
      "sel": 708,
      "urt": 709,
      "Ġuntil": 710,
      "sed": 711,
      "Ġkind": 712,
      "Ġlearned": 713,
      "Ġim": 714,
      "Ġlove": 715,
      "Ġbetter": 716,
      "ft": 717,
      "Ġflow": 718,
      "Ġcall": 719,
      "Ġdon": 720,
      "ĠMia": 721,
      "He": 722,
      "Ġend": 723,
      "Ġad": 724,
      "ull": 725,
      "Ġbest": 726,
      "vent": 727,
      "Yes": 728,
      "ars": 729,
      "urp": 730,
      "ady": 731,
      "em": 732,
      "ream": 733,
      "aut": 734,
      "urn": 735,
      "ĠAnd": 736,
      "Ġcle": 737,
      "ĠC": 738,
      "ves": 739,
      "Åĵ": 740,
      "Tom": 741,
      "arden": 742,
      "Ġgarden": 743,
      "Ġfast": 744,
      "Ġcareful": 745,
      "ber": 746,
      "Ġbeaut": 747,
      "lly": 748,
      "Th": 749,
      "Ġeven": 750,
      "pt": 751,
      "Ġbra": 752,
      "ies": 753,
      "Ġthanked": 754,
      "Ġfi": 755,
      "ĠSo": 756,
      "Ġche": 757,
      "Ġlaughed": 758,
      "Ġsky": 759,
      "Ġby": 760,
      "ĠHer": 761,
      "Ġjump": 762,
      "Ġgl": 763,
      "ase": 764,
      "Ġte": 765,
      "Ġloud": 766,
      "self": 767,
      "It": 768,
      "iny": 769,
      "Ġway": 770,
      "wn": 771,
      "Ġbeauti": 772,
      "Ġcome": 773,
      "lew": 774,
      "Ġlist": 775,
      "Ġwo": 776,
      "Ġbeautiful": 777,
      "Ġhard": 778,
      "Ġlots": 779,
      "Ġra": 780,
      "Ġstill": 781,
      "Ġfam": 782,
      "Ġanimals": 783,
      "ĠÃ¢": 784,
      "Ġhurt": 785,
      "Ġunder": 786,
      "ĠThen": 787,
      "ect": 788,
      "Ġstay": 789,
      "ning": 790,
      "Ġlet": 791,
      "ct": 792,
      "Ġboth": 793,
      "Ġcu": 794,
      "ĠHis": 795,
      "hes": 796,
      "be": 797,
      "Ġsafe": 798,
      "ĠFrom": 799,
      "ool": 800,
      "ree": 801,
      "Ġcol": 802,
      "Ġtwo": 803,
      "Ġbad": 804,
      "Ġbook": 805,
      "Ġimp": 806,
      "ople": 807,
      "Ġrem": 808,
      "ane": 809,
      "Ġlived": 810,
      "kay": 811,
      "ock": 812,
      "ucy": 813,
      "Ġwalked": 814,
      "ast": 815,
      "urpr": 816,
      "Ġbrave": 817,
      "Ġshould": 818,
      "Ġits": 819,
      "ob": 820,
      "ished": 821,
      "Ġangry": 822,
      "Ġsurpr": 823,
      "Ġfamily": 824,
      "ress": 825,
      "igh": 826,
      "Ġpeople": 827,
      "Ġflew": 828,
      "When": 829,
      "Ġcalled": 830,
      "No": 831,
      "Ġred": 832,
      "Ġstor": 833,
      "ip": 834,
      "Ġsoon": 835,
      "Ġfin": 836,
      "hn": 837,
      "Let": 838,
      "led": 839,
      "Ġkept": 840,
      "Ġfore": 841,
      "fore": 842,
      "Ġdan": 843,
      "Ġshare": 844,
      "Ġfly": 845,
      "xt": 846,
      "ĠP": 847,
      "ised": 848,
      "dded": 849,
      "Ġpic": 850,
      "âĤ¬â": 851,
      "Ġdoor": 852,
      "Ġgoing": 853,
      "ĠWhen": 854,
      "Ġpretty": 855,
      "Ġkeep": 856,
      "Ġnow": 857,
      "Ġrock": 858,
      "Ġclean": 859,
      "Ġdra": 860,
      "ary": 861,
      "Ġadvent": 862,
      "ummy": 863,
      "Ġnoise": 864,
      "Ġopened": 865,
      "Ġshiny": 866,
      "age": 867,
      "Ġexplore": 868,
      "Ġwind": 869,
      "Ġdoll": 870,
      "Tim": 871,
      "Ġcry": 872,
      "Ġcon": 873,
      "Ġide": 874,
      "Ġbefore": 875,
      "ied": 876,
      "illy": 877,
      "Ġreal": 878,
      "Ġsto": 879,
      "so": 880,
      "What": 881,
      "Ġground": 882,
      "Ġalso": 883,
      "les": 884,
      "Ġturn": 885,
      "Ħ¢": 886,
      "âĤ¬âĦ¢": 887,
      "Ġey": 888,
      "That": 889,
      "Ġfar": 890,
      "Ġidea": 891,
      "Ġfr": 892,
      "oon": 893,
      "Ġnodded": 894,
      "Ġcolor": 895,
      "Ġwar": 896,
      "oy": 897,
      "Ġfeeling": 898,
      "Ġun": 899,
      "Ġpicked": 900,
      "ĠLucy": 901,
      "imb": 902,
      "th": 903,
      "Ġnext": 904,
      "Ġwalking": 905,
      "thing": 906,
      "ĠDad": 907,
      "ture": 908,
      "Ġclimb": 909,
      "Ġhas": 910,
      "uch": 911,
      "Ġma": 912,
      "Ġthr": 913,
      "Ġwhile": 914,
      "eet": 915,
      "Ġbed": 916,
      "Ġadventure": 917,
      "Ġsmile": 918,
      "kes": 919,
      "ĠG": 920,
      "aybe": 921,
      "Thank": 922,
      "iced": 923,
      "ger": 924,
      "ious": 925,
      "Ġbeing": 926,
      "Ġdif": 927,
      "Ġwr": 928,
      "Ġclos": 929,
      "Ġfood": 930,
      "joy": 931,
      "ted": 932,
      "Ġgive": 933,
      "Ġpicture": 934,
      "Ġthink": 935,
      "ĠSp": 936,
      "Ġlooking": 937,
      "Ġdel": 938,
      "ff": 939,
      "ac": 940,
      "Ġtruck": 941,
      "Ġwait": 942,
      "Ġeyes": 943,
      "ught": 944,
      "Ġtow": 945,
      "ting": 946,
      "Ġrepl": 947,
      "Ġbro": 948,
      "Ġstopped": 949,
      "Ġlisten": 950,
      "Ġafter": 951,
      "Ġbre": 952,
      "Ġown": 953,
      "Ġvo": 954,
      "Ġwalk": 955,
      "Ben": 956,
      "ember": 957,
      "ĠSuddenly": 958,
      "Ġwonder": 959,
      "Ġgreat": 960,
      "Ġhands": 961,
      "Suddenly": 962,
      "Ġshout": 963,
      "Ġhead": 964,
      "Ġenjoy": 965,
      "Ġimport": 966,
      "Ġflowers": 967,
      "Ġever": 968,
      "Ġnoticed": 969,
      "Ġblue": 970,
      "Ġforest": 971,
      "bbit": 972,
      "ized": 973,
      "She": 974,
      "Ġapp": 975,
      "irst": 976,
      "Ġnear": 977,
      "Ġquick": 978,
      "Ġdis": 979,
      "Ġde": 980,
      "able": 981,
      "Ġimportant": 982,
      "Ġremember": 983,
      "Ġfish": 984,
      "llow": 985,
      "Ġsound": 986,
      "Ġslide": 987,
      "Ġus": 988,
      "maz": 989,
      "Ġreplied": 990,
      "Ġamaz": 991,
      "Ġac": 992,
      "lease": 993,
      "Ġwork": 994,
      "Ġwatch": 995,
      "Ġrain": 996,
      "Ġshowed": 997,
      "Ġrabbit": 998,
      "Ġokay": 999,
      "gan": 1000,
      "Ġtal": 1001,
      "bye": 1002,
      "fere": 1003,
      "bbed": 1004,
      "Ġask": 1005,
      "Ġdiffere": 1006,
      "Ġmean": 1007,
      "Ġright": 1008,
      "ĠMommy": 1009,
      "Ġye": 1010,
      "day": 1011,
      "Ġwatched": 1012,
      "Ġbright": 1013,
      "Ġfollow": 1014,
      "We": 1015,
      "ĠSpot": 1016,
      "So": 1017,
      "Ġeveryone": 1018,
      "Ġstrong": 1019,
      "ĠBob": 1020,
      "Ġsqu": 1021,
      "Ġstick": 1022,
      "Ġuse": 1023,
      "Ġbeen": 1024,
      "Ġmor": 1025,
      "Ġvoice": 1026,
      "ĠN": 1027,
      "Ġtra": 1028,
      "ered": 1029,
      "Ġquickly": 1030,
      "ath": 1031,
      "Ġour": 1032,
      "Ġwhere": 1033,
      "Ġyell": 1034,
      "Ġdifferent": 1035,
      "Ġchild": 1036,
      "Ġcuri": 1037,
      "Ġboat": 1038,
      "ng": 1039,
      "Ġsure": 1040,
      "ĠR": 1041,
      "ĠSue": 1042,
      "Ġbecame": 1043,
      "Ġgoodbye": 1044,
      "Ġface": 1045,
      "Ġplace": 1046,
      "ange": 1047,
      "Ġhop": 1048,
      "Ġhigh": 1049,
      "Ġam": 1050,
      "Look": 1051,
      "aught": 1052,
      "Ġcloser": 1053,
      "Ġstore": 1054,
      "Ġwarm": 1055,
      "Ġdoes": 1056,
      "Ġcr": 1057,
      "Ġdress": 1058,
      "unny": 1059,
      "Ġcurious": 1060,
      "Ġmag": 1061,
      "ila": 1062,
      "Ġcook": 1063,
      "Ġbel": 1064,
      "Ġforg": 1065,
      "Ġtell": 1066,
      "Ġfav": 1067,
      "ndma": 1068,
      "ass": 1069,
      "ount": 1070,
      "co": 1071,
      "Ġthree": 1072,
      "leep": 1073,
      "Ġnight": 1074,
      "Ġopen": 1075,
      "Ġcake": 1076,
      "more": 1077,
      "Ġhere": 1078,
      "Ġanymore": 1079,
      "Ġblock": 1080,
      "Ġfirst": 1081,
      "itc": 1082,
      "Ġbus": 1083,
      "Ġpull": 1084,
      "iss": 1085,
      "ached": 1086,
      "Her": 1087,
      "ired": 1088,
      "Ġbutter": 1089,
      "Ġz": 1090,
      "ĠTh": 1091,
      "imes": 1092,
      "orn": 1093,
      "Ġsweet": 1094,
      "Ġpain": 1095,
      "Ġkid": 1096,
      "Ġgrabbed": 1097,
      "Can": 1098,
      "Ġpu": 1099,
      "isy": 1100,
      "Ġonly": 1101,
      "Ġmon": 1102,
      "Ġlea": 1103,
      "ĠJohn": 1104,
      "Ġfell": 1105,
      "Ġba": 1106,
      "Ġru": 1107,
      "Ġcont": 1108,
      "Ġbirds": 1109,
      "Ġjumped": 1110,
      "Ġglad": 1111,
      "Ġbit": 1112,
      "Ġsand": 1113,
      "itchen": 1114,
      "Ġkitchen": 1115,
      "Ġhelped": 1116,
      "Ġsees": 1117,
      "Ġfire": 1118,
      "Ġper": 1119,
      "Ġflo": 1120,
      "Ġstop": 1121,
      "ĠSarah": 1122,
      "Ġhappened": 1123,
      "Ġsing": 1124,
      "Ġgrass": 1125,
      "Ġbunny": 1126,
      "Ġshouted": 1127,
      "ĠJane": 1128,
      "Ġstory": 1129,
      "ĠLet": 1130,
      "Ġtri": 1131,
      "nts": 1132,
      "Ġdr": 1133,
      "air": 1134,
      "After": 1135,
      "ppy": 1136,
      "Ġreached": 1137,
      "Ġbeh": 1138,
      "Ġrealized": 1139,
      "Ġyummy": 1140,
      "Ġbrother": 1141,
      "ĠDo": 1142,
      "Ġlady": 1143,
      "Ġmum": 1144,
      "Ġhaving": 1145,
      "Ġprin": 1146,
      "ins": 1147,
      "ĠAs": 1148,
      "Ġfavor": 1149,
      "'re": 1150,
      "Ġmess": 1151,
      "Ġfavorite": 1152,
      "Ġdraw": 1153,
      "Ġcre": 1154,
      "Ġrest": 1155,
      "Ġthrough": 1156,
      "Ġgame": 1157,
      "Ġhat": 1158,
      "Ġate": 1159,
      "Ġless": 1160,
      "Ġunderst": 1161,
      "ĠEveryone": 1162,
      "akes": 1163,
      "Ġsoft": 1164,
      "ĠJoe": 1165,
      "Ġpare": 1166,
      "zy": 1167,
      "Ġthing": 1168,
      "Ġreally": 1169,
      "ather": 1170,
      "Ġready": 1171,
      "Ġbegan": 1172,
      "where": 1173,
      "Ġpretend": 1174,
      "ĠCan": 1175,
      "Ġworld": 1176,
      "ĠThat": 1177,
      "Ġlooks": 1178,
      "ken": 1179,
      "Ġhimself": 1180,
      "Ġmagic": 1181,
      "fully": 1182,
      "Ġpap": 1183,
      "Ġdone": 1184,
      "Ġbutterf": 1185,
      "Ġmaking": 1186,
      "Ġcut": 1187,
      "Ġcoming": 1188,
      "Ġduck": 1189,
      "ater": 1190,
      "Jo": 1191,
      "Ġpond": 1192,
      "Ġkids": 1193,
      "Ġwaved": 1194,
      "Ġwhy": 1195,
      "Ġprom": 1196,
      "Ġtired": 1197,
      "Ġfro": 1198,
      "Ġfix": 1199,
      "olly": 1200,
      "ster": 1201,
      "Ġmouse": 1202,
      "Ġworry": 1203,
      "Ġpart": 1204,
      "Ġcars": 1205,
      "Mommy": 1206,
      "Ġste": 1207,
      "Ġdelic": 1208,
      "Ġname": 1209,
      "Ġflower": 1210,
      "ign": 1211,
      "Ġfill": 1212,
      "Wow": 1213,
      "aisy": 1214,
      "Ġtouch": 1215,
      "eddy": 1216,
      "Ġfunny": 1217,
      "Ġcatch": 1218,
      "bo": 1219,
      "Ġused": 1220,
      "sh": 1221,
      "Ġseen": 1222,
      "Ġhair": 1223,
      "Ġtast": 1224,
      "ient": 1225,
      "Ġtop": 1226,
      "Ġparents": 1227,
      "rel": 1228,
      "Ġanother": 1229,
      "Ġhold": 1230,
      "Ġhopped": 1231,
      "Ġcried": 1232,
      "iver": 1233,
      "uff": 1234,
      "oney": 1235,
      "Anna": 1236,
      "mer": 1237,
      "Ġdoing": 1238,
      "Ġcool": 1239,
      "Ġblocks": 1240,
      "hy": 1241,
      "\".": 1242,
      "Ġpus": 1243,
      "Sara": 1244,
      "Ġsurprise": 1245,
      "Ġlight": 1246,
      "Ġgreen": 1247,
      "As": 1248,
      "Ġthank": 1249,
      "Ġlesson": 1250,
      "ation": 1251,
      "Ġread": 1252,
      "Ġfloor": 1253,
      "Ġdin": 1254,
      "Ġgi": 1255,
      "Ġwood": 1256,
      "Ġfull": 1257,
      "Don": 1258,
      "Ġdri": 1259,
      "ards": 1260,
      "Ġtrees": 1261,
      "Ġrunning": 1262,
      "Ġwindow": 1263,
      "Ġworked": 1264,
      "ĠLila": 1265,
      "Ġyears": 1266,
      "Ġcra": 1267,
      "Ġdro": 1268,
      "Ġ-": 1269,
      "Ġdark": 1270,
      "Ġbehind": 1271,
      "Ġlikes": 1272,
      "Ġsmell": 1273,
      "Ġspot": 1274,
      "Ġwished": 1275,
      "Ġpaper": 1276,
      "ued": 1277,
      "Ġyellow": 1278,
      "andy": 1279,
      "Ġbow": 1280,
      "ul": 1281,
      "ren": 1282,
      "Timmy": 1283,
      "Ġswim": 1284,
      "Ġhappily": 1285,
      "Ġbag": 1286,
      "Ġsat": 1287,
      "Ġsho": 1288,
      "Ġsleep": 1289,
      "aring": 1290,
      "Ġsurprised": 1291,
      "ely": 1292,
      "ĠIn": 1293,
      "Ġfrog": 1294,
      "Ġbutterfly": 1295,
      "ike": 1296,
      "Ġswing": 1297,
      "Ġset": 1298,
      "Ġcarefully": 1299,
      "Ġslow": 1300,
      "Ġremembered": 1301,
      "Ġlost": 1302,
      "Ġcold": 1303,
      "Ġheld": 1304,
      "ello": 1305,
      "Hello": 1306,
      "Ġhole": 1307,
      "Ġice": 1308,
      "Ġlaugh": 1309,
      "rew": 1310,
      "Ġneeded": 1311,
      "Ġbuy": 1312,
      "Ġperf": 1313,
      "Ġleft": 1314,
      "ons": 1315,
      "Ġmove": 1316,
      "reed": 1317,
      "cess": 1318,
      "Ġanything": 1319,
      "Ġdream": 1320,
      "Ġtall": 1321,
      "Ġenjoyed": 1322,
      "Ġwrong": 1323,
      "Ġarri": 1324,
      "uit": 1325,
      "Ġhear": 1326,
      "Ġfair": 1327,
      "Ġair": 1328,
      "Ġfollowed": 1329,
      "inally": 1330,
      "Ġbooks": 1331,
      "ross": 1332,
      "Ġel": 1333,
      "Ġchildren": 1334,
      "Ġhun": 1335,
      "ĠTommy": 1336,
      "Ġdelicious": 1337,
      "Ġtable": 1338,
      "Ġfinished": 1339,
      "Ġcontin": 1340,
      "Ġfriendly": 1341,
      "Ġdir": 1342,
      "Ġhot": 1343,
      "Ġsnow": 1344,
      "ĠThere": 1345,
      "Ġherself": 1346,
      "ds": 1347,
      "lf": 1348,
      "ĠAfter": 1349,
      "Ġhill": 1350,
      "ens": 1351,
      "Ġunderstand": 1352,
      "Ġplease": 1353,
      "Ġclose": 1354,
      "ined": 1355,
      "Ġhid": 1356,
      "Ġarrived": 1357,
      "Ġcast": 1358,
      "Ġelse": 1359,
      "Ġarm": 1360,
      "Ġbaby": 1361,
      "Ġwonderful": 1362,
      "Ġmight": 1363,
      "ĠSally": 1364,
      "Ġgent": 1365,
      "Ġtight": 1366,
      "Ġforgot": 1367,
      "sp": 1368,
      "ield": 1369,
      "Ġbug": 1370,
      "Ġcolors": 1371,
      "Ġrel": 1372,
      "Ġbuild": 1373,
      "ĠDaisy": 1374,
      "Ġbroken": 1375,
      "Ġable": 1376,
      "Ġgone": 1377,
      "av": 1378,
      "ĠBenny": 1379,
      "ner": 1380,
      "ĠNow": 1381,
      "Ġyes": 1382,
      "atter": 1383,
      "Ġsong": 1384,
      "ich": 1385,
      "Ġwall": 1386,
      "Then": 1387,
      "Ġsquir": 1388,
      "Ġfilled": 1389,
      "Ġagreed": 1390,
      "Ġsomeone": 1391,
      "Ġcontinued": 1392,
      "room": 1393,
      "Ġcreat": 1394,
      "asure": 1395,
      "ĠEm": 1396,
      "'ll": 1397,
      "Ġcount": 1398,
      "Ġwants": 1399,
      "Ġsquirrel": 1400,
      "Ġpink": 1401,
      "Ġleaves": 1402,
      "ask": 1403,
      "Ġenough": 1404,
      "Ġlion": 1405,
      "From": 1406,
      "ama": 1407,
      "ee": 1408,
      "Sam": 1409,
      "OK": 1410,
      "Ġmorning": 1411,
      "Ġvis": 1412,
      "Ġmoment": 1413,
      "ey": 1414,
      "Ġfinally": 1415,
      "Ġgetting": 1416,
      "ĠK": 1417,
      "Ġstayed": 1418,
      "Ġcookies": 1419,
      "Ġbreak": 1420,
      "app": 1421,
      "Ġpoin": 1422,
      "ance": 1423,
      "Ġbeach": 1424,
      "Ġfew": 1425,
      "ĠMaybe": 1426,
      "Ġscary": 1427,
      "Ġfight": 1428,
      "John": 1429,
      "Ġsometimes": 1430,
      "row": 1431,
      "ash": 1432,
      "ries": 1433,
      "ced": 1434,
      "red": 1435,
      "Jack": 1436,
      "Ġturned": 1437,
      "Ġhungry": 1438,
      "Ġfall": 1439,
      "ĠBilly": 1440,
      "Ġdinner": 1441,
      "gon": 1442,
      "Ġmother": 1443,
      "Ġgrandma": 1444,
      "Ġju": 1445,
      "Ġwet": 1446,
      "ĠWhat": 1447,
      "Ġamazing": 1448,
      "apped": 1449,
      "Ġtrying": 1450,
      "Ġcream": 1451,
      "His": 1452,
      "Ġdaddy": 1453,
      "Ġperfect": 1454,
      "Ġpi": 1455,
      "Ġmakes": 1456,
      "Ġcastle": 1457,
      "Ġothers": 1458,
      "Ġclimbed": 1459,
      "At": 1460,
      "ĠThis": 1461,
      "key": 1462,
      "oup": 1463,
      "Ġpictures": 1464,
      "This": 1465,
      "icy": 1466,
      "Ġcomp": 1467,
      "amp": 1468,
      "Ġtalk": 1469,
      "Ġmet": 1470,
      "ĠGra": 1471,
      "Ġmus": 1472,
      "Ġwhite": 1473,
      "oom": 1474,
      "Ġlistened": 1475,
      "Ġsmiles": 1476,
      "man": 1477,
      "Ġfur": 1478,
      "Ġballoon": 1479,
      "Ġclot": 1480,
      "oring": 1481,
      "Ġalone": 1482,
      "Ġclothes": 1483,
      "Ġpol": 1484,
      "lc": 1485,
      "Ġtail": 1486,
      "Ġjoy": 1487,
      "ated": 1488,
      "rot": 1489,
      "Oh": 1490,
      "Ġpuppy": 1491,
      "Ġspl": 1492,
      "ence": 1493,
      "Ġmar": 1494,
      "ĠTo": 1495,
      "Ġwasn": 1496,
      "Ġbrought": 1497,
      "Ġdeep": 1498,
      "ĠJim": 1499,
      "Ġeverything": 1500,
      "Ġpet": 1501,
      "Ġsear": 1502,
      "Ġstrange": 1503,
      "ister": 1504,
      "ctor": 1505,
      "Ġspark": 1506,
      "der": 1507,
      "ĠJen": 1508,
      "Ġsit": 1509,
      "Ġwoods": 1510,
      "Ġgrow": 1511,
      "Ġpulled": 1512,
      "ling": 1513,
      "Ġsail": 1514,
      "ott": 1515,
      "Ġwon": 1516,
      "ĠAmy": 1517,
      "Ġplan": 1518,
      "Ġride": 1519,
      "eter": 1520,
      "Ġasks": 1521,
      "Ġfox": 1522,
      "Ġpie": 1523,
      "Ġdanger": 1524,
      "Ġtreat": 1525,
      "uffy": 1526,
      "Ġroll": 1527,
      "Ġvisit": 1528,
      "os": 1529,
      "Ġleave": 1530,
      "med": 1531,
      "Ġpat": 1532,
      "ucky": 1533,
      "Ġmusic": 1534,
      "Ġamazed": 1535,
      "Ġwaited": 1536,
      "Ġteddy": 1537,
      "Ġhide": 1538,
      "me": 1539,
      "ang": 1540,
      "ever": 1541,
      "Ġtowards": 1542,
      "ower": 1543,
      "Ġfield": 1544,
      "Ġland": 1545,
      "Ġpre": 1546,
      "Ġflying": 1547,
      "zz": 1548,
      "Ġpen": 1549,
      "Ġsilly": 1550,
      "Ġshared": 1551,
      "Ġruns": 1552,
      "ained": 1553,
      "Ġowner": 1554,
      "Ġcloud": 1555,
      "ape": 1556,
      "Ġliving": 1557,
      "ugg": 1558,
      "Ġqui": 1559,
      "ames": 1560,
      "Ġjob": 1561,
      "Ġpromised": 1562,
      "Okay": 1563,
      "Ġbelie": 1564,
      "igg": 1565,
      "Ġmoral": 1566,
      "Ġgu": 1567,
      "Ġside": 1568,
      "gs": 1569,
      "orm": 1570,
      "Ġlake": 1571,
      "ol": 1572,
      "ĠMolly": 1573,
      "Ġpa": 1574,
      "Ġthinks": 1575,
      "Maybe": 1576,
      "cket": 1577,
      "ope": 1578,
      "Ġpaint": 1579,
      "Ġsec": 1580,
      "thy": 1581,
      "Ġsister": 1582,
      "ually": 1583,
      "Ġparty": 1584,
      "Ġquiet": 1585,
      "Max": 1586,
      "ises": 1587,
      "Ġmust": 1588,
      "cle": 1589,
      "Ġrace": 1590,
      "avy": 1591,
      "Ġmoney": 1592,
      "Ġwear": 1593,
      "sw": 1594,
      "Ġworried": 1595,
      "ased": 1596,
      "up": 1597,
      "Ġansw": 1598,
      "unch": 1599,
      "Ġslowly": 1600,
      "Ġpot": 1601,
      "eces": 1602,
      "Ġcolorful": 1603,
      "Ġfaster": 1604,
      "Ġgrate": 1605,
      "Ġow": 1606,
      "Ġdance": 1607,
      "Ġpieces": 1608,
      "Ġbran": 1609,
      "Ġbott": 1610,
      "Ġwelc": 1611,
      "Ġbroke": 1612,
      "Ġcup": 1613,
      "ix": 1614,
      "Ġgrateful": 1615,
      "Ġgif": 1616,
      "Ġsuch": 1617,
      "Ġbigger": 1618,
      "ze": 1619,
      "Ġtrain": 1620,
      "ph": 1621,
      "fort": 1622,
      "Ġsnack": 1623,
      "Ġcho": 1624,
      "Ġreach": 1625,
      "Ġblank": 1626,
      "ĠAll": 1627,
      "Ġmonster": 1628,
      "Ġpro": 1629,
      "Ġplant": 1630,
      "Ġjoin": 1631,
      "Ġriver": 1632,
      "Ġblack": 1633,
      "less": 1634,
      "Ġwin": 1635,
      "Ġcandy": 1636,
      "ire": 1637,
      "Ġblanket": 1638,
      "Ġscream": 1639,
      "Ġtreasure": 1640,
      "Ġmagical": 1641,
      "ear": 1642,
      "Ġve": 1643,
      "Ġprincess": 1644,
      "Ġele": 1645,
      "Ġsmart": 1646,
      "Ġbike": 1647,
      "Ġdangerous": 1648,
      "ĠDaddy": 1649,
      "Ġsign": 1650,
      "Ġdragon": 1651,
      "Ġacross": 1652,
      "Ġmonkey": 1653,
      "Sure": 1654,
      "ĠJill": 1655,
      "Ġbar": 1656,
      "Ġeverywhere": 1657,
      "Ġmost": 1658,
      "Ġhelping": 1659,
      "Ġnap": 1660,
      "Ġfarmer": 1661,
      "outh": 1662,
      "Ġem": 1663,
      "Ġmouth": 1664,
      "Why": 1665,
      "set": 1666,
      "Ġdisapp": 1667,
      "Ġwords": 1668,
      "Ġje": 1669,
      "ipped": 1670,
      "Ġstre": 1671,
      "ored": 1672,
      "Hi": 1673,
      "Ġtower": 1674,
      "ming": 1675,
      "eared": 1676,
      "Ġthrew": 1677,
      "Ġstepped": 1678,
      "Ġheavy": 1679,
      "Ġdolls": 1680,
      "Ġpass": 1681,
      "Ġbite": 1682,
      "de": 1683,
      "Ġbowl": 1684,
      "Ġdirty": 1685,
      "Ġtwins": 1686,
      "Ġsame": 1687,
      "Ġcrying": 1688,
      "Ġbee": 1689,
      "Ġspr": 1690,
      "ere": 1691,
      "Ġdoctor": 1692,
      "ident": 1693,
      "Ġacc": 1694,
      "Ġbelieve": 1695,
      "Ġwouldn": 1696,
      "Ġbath": 1697,
      "ĠFl": 1698,
      "Ġheal": 1699,
      "chool": 1700,
      "Ġhig": 1701,
      "bble": 1702,
      "Ġclosed": 1703,
      "Ġcarrot": 1704,
      "Ġheart": 1705,
      "Ġstuck": 1706,
      "cked": 1707,
      "Ġcour": 1708,
      "Ġfruit": 1709,
      "Ġbuck": 1710,
      "Ġmin": 1711,
      "Ġatt": 1712,
      "ĠMr": 1713,
      "Ġteac": 1714,
      "Ġschool": 1715,
      "Ġbrown": 1716,
      "Ġhoped": 1717,
      "asket": 1718,
      "iting": 1719,
      "Ġsuddenly": 1720,
      "Ġbasket": 1721,
      "Ġfeels": 1722,
      "Ġmix": 1723,
      "Ġchair": 1724,
      "Ġeating": 1725,
      "Ġtown": 1726,
      "Ġcourse": 1727,
      "Ġcray": 1728,
      "Ġclapped": 1729,
      "Ġcoll": 1730,
      "Ġgentle": 1731,
      "Ġfairy": 1732,
      "pping": 1733,
      "Ġbutt": 1734,
      "Ġpack": 1735,
      "ventually": 1736,
      "Ġstand": 1737,
      "ier": 1738,
      "Ġdrove": 1739,
      "ors": 1740,
      "Ġpushed": 1741,
      "br": 1742,
      "issed": 1743,
      "Ġwelcome": 1744,
      "ts": 1745,
      "Ġswings": 1746,
      "Ġwithout": 1747,
      "Ġhigher": 1748,
      "Ġtoday": 1749,
      "Ġneigh": 1750,
      "Ġpocket": 1751,
      "orrow": 1752,
      "Ġhit": 1753,
      "Ġteacher": 1754,
      "ĠMary": 1755,
      "Ġneighb": 1756,
      "Ġpers": 1757,
      "ord": 1758,
      "Ġsmo": 1759,
      "Ġgames": 1760,
      "ourn": 1761,
      "Ġpiece": 1762,
      "ract": 1763,
      "Ġcheered": 1764,
      "Ġwings": 1765,
      "Ġforget": 1766,
      "Ġben": 1767,
      "Ġexplained": 1768,
      "Ġjourn": 1769,
      "Ġyard": 1770,
      "Ġlonger": 1771,
      "Ġfree": 1772,
      "Finally": 1773,
      "ible": 1774,
      "Ġcorn": 1775,
      "Ġaccident": 1776,
      "ho": 1777,
      "ead": 1778,
      "Ġdry": 1779,
      "Ġalong": 1780,
      "umb": 1781,
      "ment": 1782,
      "cy": 1783,
      "Ġnoises": 1784,
      "itting": 1785,
      "Ġneck": 1786,
      "Ġsang": 1787,
      "Ġinst": 1788,
      "Ġlate": 1789,
      "Ġhappen": 1790,
      "Ġthrow": 1791,
      "Ġhugs": 1792,
      "Ġyoung": 1793,
      "Ġturns": 1794,
      "Ġstories": 1795,
      "vel": 1796,
      "Mia": 1797,
      "Ġshoes": 1798,
      "phant": 1799,
      "Ġlon": 1800,
      "Ġmiss": 1801,
      "Ġadventures": 1802,
      "Ġsinging": 1803,
      "Ġtrou": 1804,
      "Ġwell": 1805,
      "Ġsea": 1806,
      "Ġlunch": 1807,
      "Ġapple": 1808,
      "Ġupset": 1809,
      "Ġlonely": 1810,
      "Ġkey": 1811,
      "ches": 1812,
      "Ġbelong": 1813,
      "bby": 1814,
      "oun": 1815,
      "Ġdist": 1816,
      "Ġsecret": 1817,
      "Ġstreet": 1818,
      "Ġplac": 1819,
      "Ġelephant": 1820,
      "Ġtom": 1821,
      "Ġwish": 1822,
      "Ġfence": 1823,
      "Ġmine": 1824,
      "ountain": 1825,
      "Ġmat": 1826,
      "ĠGrandma": 1827,
      "ek": 1828,
      "Ġshap": 1829,
      "Ġshook": 1830,
      "Ġexploring": 1831,
      "Ġmoved": 1832,
      "Ġpurp": 1833,
      "Ġyear": 1834,
      "aughty": 1835,
      "Ġnearby": 1836,
      "Ġnaughty": 1837,
      "Ġstar": 1838,
      "Ġsoup": 1839,
      "Ġshop": 1840,
      "Ġwise": 1841,
      "Ġstars": 1842,
      "Ġowl": 1843,
      "Ġbring": 1844,
      "fused": 1845,
      "Ġjar": 1846,
      "bow": 1847,
      "Do": 1848,
      "ocked": 1849,
      "Ġinv": 1850,
      "Ġexp": 1851,
      "Ġwhe": 1852,
      "yard": 1853,
      "Ġcaught": 1854,
      "Ġsu": 1855,
      "ward": 1856,
      "ĠEmma": 1857,
      "Ġbackyard": 1858,
      "Ġseemed": 1859,
      "ail": 1860,
      "Ġes": 1861,
      "Ġrelie": 1862,
      "Ġdropped": 1863,
      "Ġph": 1864,
      "Ġrocks": 1865,
      "aughter": 1866,
      "llo": 1867,
      "Ġ3": 1868,
      "ush": 1869,
      "Ġdrink": 1870,
      "Ġbucket": 1871,
      "Ġdes": 1872,
      "Ġca": 1873,
      "adow": 1874,
      "ces": 1875,
      "Ġpurple": 1876,
      "Ġswam": 1877,
      "Ġfarm": 1878,
      "Ġresp": 1879,
      "Ġtaking": 1880,
      "ĠMama": 1881,
      "Ġmail": 1882,
      "Ġorange": 1883,
      "Ġthough": 1884,
      "ions": 1885,
      "Ġshapes": 1886,
      "Ġpast": 1887,
      "col": 1888,
      "Ġcow": 1889,
      "Ġstu": 1890,
      "ĠThank": 1891,
      "Ġwoke": 1892,
      "Ġbench": 1893,
      "Ġsounds": 1894,
      "Ġaf": 1895,
      "ung": 1896,
      "ity": 1897,
      "sy": 1898,
      "And": 1899,
      "Ġwondered": 1900,
      "Ġbusy": 1901,
      "Ġfit": 1902,
      "Ġtiny": 1903,
      "Ġob": 1904,
      "Ġnose": 1905,
      "Ġsitting": 1906,
      "Ġnest": 1907,
      "Ġrainbow": 1908,
      "ĠO": 1909,
      "ese": 1910,
      "Ġdaughter": 1911,
      "Ġtakes": 1912,
      "Ġmark": 1913,
      "Ġmad": 1914,
      "fish": 1915,
      "Ġcou": 1916,
      "Ġkite": 1917,
      "to": 1918,
      "read": 1919,
      "Ġholding": 1920,
      "weet": 1921,
      "Ġnothing": 1922,
      "Ġcomes": 1923,
      "Ġjuice": 1924,
      "Ġarms": 1925,
      "thday": 1926,
      "Ġpig": 1927,
      "Ġcoat": 1928,
      "og": 1929,
      "ĠFluffy": 1930,
      "ining": 1931,
      "Ġcir": 1932,
      "ĠInside": 1933,
      "Ġbranch": 1934,
      "raid": 1935,
      "Ġrelieved": 1936,
      "pper": 1937,
      "Ġafraid": 1938,
      "cing": 1939,
      "ose": 1940,
      "idge": 1941,
      "Ġdriver": 1942,
      "Ġmil": 1943,
      "Ġforever": 1944,
      "vered": 1945,
      "Ġspoon": 1946,
      "ĠJimmy": 1947,
      "Ġcute": 1948,
      "Ġcarry": 1949,
      "Ġgift": 1950,
      "Ġsick": 1951,
      "Ġboun": 1952,
      "Ġlift": 1953,
      "sting": 1954,
      "Ġpeace": 1955,
      "Of": 1956,
      "Ġpromise": 1957,
      "ours": 1958,
      "ĠFinally": 1959,
      "Ġhuge": 1960,
      "Ġact": 1961,
      "Ġtou": 1962,
      "Ġtouched": 1963,
      "Ġpatient": 1964,
      "unt": 1965,
      "Ġking": 1966,
      "Ġround": 1967,
      "cer": 1968,
      "sc": 1969,
      "Ġhello": 1970,
      "ĠCome": 1971,
      "Ġbirthday": 1972,
      "Ġfing": 1973,
      "Ġletter": 1974,
      "Ġgrab": 1975,
      "Ġintere": 1976,
      "Ġexciting": 1977,
      "let": 1978,
      "Ġsunny": 1979,
      "Ġcheese": 1980,
      "ĠSammy": 1981,
      "eth": 1982,
      "Ġonto": 1983,
      "Ġlaughing": 1984,
      "Ġdays": 1985,
      "board": 1986,
      "Ġjourney": 1987,
      "Ġgigg": 1988,
      "Ġband": 1989,
      "Ġcreature": 1990,
      "Ġdisco": 1991,
      "ittens": 1992,
      "Ġbread": 1993,
      "Hey": 1994,
      "arp": 1995,
      "Ġret": 1996,
      "Ġimag": 1997,
      "ped": 1998,
      "shine": 1999,
      "Ġlife": 2000,
      "Ġkick": 2001,
      "Ġbush": 2002,
      "gged": 2003,
      "Ġhope": 2004,
      "Ġpower": 2005,
      "Ġcraw": 2006,
      "Ġshell": 2007,
      "Ġcozy": 2008,
      "Ġswimming": 2009,
      "Ġinc": 2010,
      "Ġbottle": 2011,
      "Ġmist": 2012,
      "Ġsharp": 2013,
      "Ġwra": 2014,
      "gg": 2015,
      "Ġsuc": 2016,
      "Ġcomfort": 2017,
      "Ġinstead": 2018,
      "Ġwhist": 2019,
      "Ġmilk": 2020,
      "Ġwatching": 2021,
      "Ġreturn": 2022,
      "Ġear": 2023,
      "ness": 2024,
      "Ġspin": 2025,
      "alm": 2026,
      "Ġaccidentally": 2027,
      "Ġeas": 2028,
      "Ġsunshine": 2029,
      "ten": 2030,
      "ĠSoon": 2031,
      "Ġcave": 2032,
      "pa": 2033,
      "Ġspo": 2034,
      "Ġputs": 2035,
      "Ġlucky": 2036,
      "Ġtalked": 2037,
      "Ġhoney": 2038,
      "Ġpudd": 2039,
      "Ġpointed": 2040,
      "Ġgives": 2041,
      "Ġcollect": 2042,
      "Ġgather": 2043,
      "itch": 2044,
      "Ġroad": 2045,
      "Ġent": 2046,
      "Later": 2047,
      "Ġsmiling": 2048,
      "Ġbought": 2049,
      "Ġanyone": 2050,
      "Ġhor": 2051,
      "Ġsearched": 2052,
      "Ġlater": 2053,
      "Ġce": 2054,
      "Ġfan": 2055,
      "Ġsandw": 2056,
      "ball": 2057,
      "round": 2058,
      "itten": 2059,
      "Ġapples": 2060,
      "els": 2061,
      "blem": 2062,
      "irt": 2063,
      "Ġproblem": 2064,
      "Ġmeet": 2065,
      "ize": 2066,
      "Ġmach": 2067,
      "Ġwom": 2068,
      "Ġloves": 2069,
      "Ġinteresting": 2070,
      "Good": 2071,
      "ÅĵI": 2072,
      "Ġwoman": 2073,
      "Ġplane": 2074,
      "ĠTweet": 2075,
      "Ġkiss": 2076,
      "Ġpres": 2077,
      "Ġhealthy": 2078,
      "eb": 2079,
      "Ġpile": 2080,
      "Ġtasty": 2081,
      "Ġducks": 2082,
      "ub": 2083,
      "Ġvill": 2084,
      "Lucy": 2085,
      "ove": 2086,
      "Ġwide": 2087,
      "ont": 2088,
      "amed": 2089,
      "aur": 2090,
      "Ġadm": 2091,
      "Ġeag": 2092,
      "Ġspid": 2093,
      "Ġclever": 2094,
      "Ġcrayons": 2095,
      "Ġprot": 2096,
      "Ġmatter": 2097,
      "Ġtrouble": 2098,
      "erly": 2099,
      "ndpa": 2100,
      "Ġzoom": 2101,
      "Ġclouds": 2102,
      "ĠWith": 2103,
      "owed": 2104,
      "Ġstorm": 2105,
      "Ġperson": 2106,
      "Ġpath": 2107,
      "cks": 2108,
      "Ġpill": 2109,
      "Ġfeather": 2110,
      "Ġrope": 2111,
      "Ġpop": 2112,
      "Ġshining": 2113,
      "Ġprotect": 2114,
      "Ġsmelled": 2115,
      "Ġfront": 2116,
      "Ġhon": 2117,
      "ĠEll": 2118,
      "Ġbutton": 2119,
      "Ġpract": 2120,
      "Ġspotted": 2121,
      "Ġscreamed": 2122,
      "Ġzoo": 2123,
      "Ġminut": 2124,
      "Ġpresent": 2125,
      "Come": 2126,
      "Ġap": 2127,
      "Ġmud": 2128,
      "Ġval": 2129,
      "Ġrespect": 2130,
      "Ġsaf": 2131,
      "Ġdanced": 2132,
      "Ġcheer": 2133,
      "Ġorgan": 2134,
      "Ġpar": 2135,
      "Ġquest": 2136,
      "ond": 2137,
      "Ġappeared": 2138,
      "Ġwhich": 2139,
      "Ġpuzz": 2140,
      "Ġseat": 2141,
      "Ġteach": 2142,
      "Ġmyster": 2143,
      "Ġsnowman": 2144,
      "Just": 2145,
      "isa": 2146,
      "Ġsnake": 2147,
      "Ġthin": 2148,
      "ert": 2149,
      "ale": 2150,
      "Ġwild": 2151,
      "Ġasleep": 2152,
      "Ġlovely": 2153,
      "Ġsur": 2154,
      "Ġanswer": 2155,
      "epend": 2156,
      "Ġwearing": 2157,
      "Ġgently": 2158,
      "Ġneighbor": 2159,
      "oose": 2160,
      "Ġbark": 2161,
      "Ġhorse": 2162,
      "Ġgiant": 2163,
      "Ġplaces": 2164,
      "Ġgoes": 2165,
      "Ġwhole": 2166,
      "ometimes": 2167,
      "Lila": 2168,
      "Ġsearch": 2169,
      "Ġsplas": 2170,
      "ĠEmily": 2171,
      "Ġcorner": 2172,
      "Ġimpress": 2173,
      "ular": 2174,
      "Ġdirt": 2175,
      "Bob": 2176,
      "Ġmed": 2177,
      "Ġshr": 2178,
      "een": 2179,
      "Ġtries": 2180,
      "Ġtrip": 2181,
      "Ġconfused": 2182,
      "Ġlive": 2183,
      "Ġmind": 2184,
      "Ġdi": 2185,
      "ato": 2186,
      "la": 2187,
      "Ġrolled": 2188,
      "St": 2189,
      "Ġcard": 2190,
      "Ġslid": 2191,
      "Ġtasted": 2192,
      "nic": 2193,
      "Every": 2194,
      "cean": 2195,
      "Ġash": 2196,
      "Ġocean": 2197,
      "Ġsupp": 2198,
      "Ġforgive": 2199,
      "Ġpicnic": 2200,
      "ĠCh": 2201,
      "Ġrude": 2202,
      "Ġmachine": 2203,
      "ex": 2204,
      "Ġspent": 2205,
      "ĠGo": 2206,
      "Ġdrive": 2207,
      "Ġteeth": 2208,
      "Ġser": 2209,
      "ĠJenny": 2210,
      "ssed": 2211,
      "itty": 2212,
      "Ġphone": 2213,
      "ĠHow": 2214,
      "Ġoven": 2215,
      "In": 2216,
      "Ġpan": 2217,
      "Ġpour": 2218,
      "Ġlast": 2219,
      "Ġcalm": 2220,
      "Ġpretended": 2221,
      "Ġdelight": 2222,
      "Ġcookie": 2223,
      "Ġfurry": 2224,
      "Ġspider": 2225,
      "izz": 2226,
      "Ġfeet": 2227,
      "Ġfaces": 2228,
      "unk": 2229,
      "Ġlay": 2230,
      "Ġworm": 2231,
      "Ġring": 2232,
      "Ġrec": 2233,
      "umber": 2234,
      "Ġhelpful": 2235,
      "Ġlad": 2236,
      "ĠMittens": 2237,
      "Ġeventually": 2238,
      "Ġwip": 2239,
      "Ġchick": 2240,
      "Ġwave": 2241,
      "ĠMum": 2242,
      "Ġmountain": 2243,
      "Ġsal": 2244,
      "Ġban": 2245,
      "Ġemb": 2246,
      "Ġtalking": 2247,
      "ones": 2248,
      "Ġrob": 2249,
      "Ġfold": 2250,
      "Ġshy": 2251,
      "Ġcart": 2252,
      "Ġtomorrow": 2253,
      "Ġsel": 2254,
      "Ġchocol": 2255,
      "Ġtid": 2256,
      "Ġspread": 2257,
      "Ġvillage": 2258,
      "arge": 2259,
      "ife": 2260,
      "Ġremind": 2261,
      "Ġign": 2262,
      "Ġbubble": 2263,
      "Ġtun": 2264,
      "Ġcoin": 2265,
      "Ġfoot": 2266,
      "Ġcouch": 2267,
      "Ġwrite": 2268,
      "Ġladder": 2269,
      "Ġbuilding": 2270,
      "Ġpush": 2271,
      "Ġfighting": 2272,
      "Ġsmooth": 2273,
      "Ġtreats": 2274,
      "hile": 2275,
      "Ġwore": 2276,
      "Ġchased": 2277,
      "Ġtool": 2278,
      "ighed": 2279,
      "Ġblew": 2280,
      "Ġstret": 2281,
      "lex": 2282,
      "Soon": 2283,
      "My": 2284,
      "arra": 2285,
      "Ġbugs": 2286,
      "Tommy": 2287,
      "Ġembarra": 2288,
      "Ġhiding": 2289,
      "Ġpool": 2290,
      "Ġcross": 2291,
      "Ġwaiting": 2292,
      "oph": 2293,
      "Ġknee": 2294,
      "Ġrobot": 2295,
      "Ġneckl": 2296,
      "Ġstep": 2297,
      "Ġpuddle": 2298,
      "mo": 2299,
      "Ġfinish": 2300,
      "Ġshelf": 2301,
      "Ġbell": 2302,
      "Ġcoo": 2303,
      "not": 2304,
      "als": 2305,
      "Ġsongs": 2306,
      "Ġstir": 2307,
      "ator": 2308,
      "Ġwhenever": 2309,
      "ĠJake": 2310,
      "Ġselfish": 2311,
      "Ġant": 2312,
      "Ġmaybe": 2313,
      "ĠSt": 2314,
      "Ġcannot": 2315,
      "Ġstring": 2316,
      "Ġstra": 2317,
      "Ġchocolate": 2318,
      "ult": 2319,
      "Ġsol": 2320,
      "ĠAl": 2321,
      "Ġtaste": 2322,
      "Ġspe": 2323,
      "Ġrep": 2324,
      "Ġhum": 2325,
      "Ġple": 2326,
      "Ġlarge": 2327,
      "Ġpaw": 2328,
      "Ġnet": 2329,
      "box": 2330,
      "Ġsack": 2331,
      "Ġleaf": 2332,
      "Ġscar": 2333,
      "Ġfixed": 2334,
      "lebr": 2335,
      "Ġbarked": 2336,
      "Ġtidy": 2337,
      "umpy": 2338,
      "Ġbanan": 2339,
      "Ġwash": 2340,
      "ĠEverywhere": 2341,
      "ĠSometimes": 2342,
      "Ġspray": 2343,
      "Ġstone": 2344,
      "old": 2345,
      "ĠJust": 2346,
      "hnn": 2347,
      "Ġcelebr": 2348,
      "ĠLe": 2349,
      "Ġgen": 2350,
      "Ġcloth": 2351,
      "Please": 2352,
      "Ġcrab": 2353,
      "Ġpeaceful": 2354,
      "Ġcolour": 2355,
      "Mum": 2356,
      "ungle": 2357,
      "ĠPlease": 2358,
      "hnny": 2359,
      "Ġhel": 2360,
      "ird": 2361,
      "oin": 2362,
      "Ġmissed": 2363,
      "Ġdeter": 2364,
      "Ġ'": 2365,
      "Ġjungle": 2366,
      "iger": 2367,
      "Dad": 2368,
      "arm": 2369,
      "Now": 2370,
      "Ġlanded": 2371,
      "Ġdeterm": 2372,
      "Ġforward": 2373,
      "Ġembarrassed": 2374,
      "Ġnecklace": 2375,
      "Ġhonest": 2376,
      "Ġjumping": 2377,
      "airs": 2378,
      "elly": 2379,
      "Ġbat": 2380,
      "ĠTheir": 2381,
      "Ġdecor": 2382,
      "dge": 2383,
      "Ġtrust": 2384,
      "Ġhears": 2385,
      "ĠLisa": 2386,
      "Ġmoon": 2387,
      "orry": 2388,
      "Ġsticks": 2389,
      "ĠTV": 2390,
      "Ġshirt": 2391,
      "Sarah": 2392,
      "Ġcreative": 2393,
      "Ġsharing": 2394,
      "aking": 2395,
      "Ġtea": 2396,
      "most": 2397,
      "Ġknocked": 2398,
      "Ġcarrots": 2399,
      "Ġdisappoin": 2400,
      "Ġsuccess": 2401,
      "Ġmeadow": 2402,
      "ying": 2403,
      "getable": 2404,
      "Ġwhis": 2405,
      "Ġstood": 2406,
      "Ġgener": 2407,
      "Ġvegetable": 2408,
      "ĠDon": 2409,
      "Ġbal": 2410,
      "Ġmeant": 2411,
      "Ġlegs": 2412,
      "Ġtightly": 2413,
      "Ġbreath": 2414,
      "Ġplate": 2415,
      "Ġalmost": 2416,
      "Ġashamed": 2417,
      "ned": 2418,
      "Ġemp": 2419,
      "Ġsour": 2420,
      "Ġgray": 2421,
      "ĠTeddy": 2422,
      "dle": 2423,
      "Ġgrew": 2424,
      "Ġtells": 2425,
      "ĠSome": 2426,
      "Ġempty": 2427,
      "Ġpillow": 2428,
      "ground": 2429,
      "ony": 2430,
      "Ġgas": 2431,
      "Ġsplash": 2432,
      "Ġwhistle": 2433,
      "ian": 2434,
      "Ġunderstood": 2435,
      "ĠAnn": 2436,
      "Ġsheep": 2437,
      "Ġber": 2438,
      "Ġcarried": 2439,
      "Be": 2440,
      "den": 2441,
      "Ġyelled": 2442,
      "ĠWhy": 2443,
      "Molly": 2444,
      "Ġlem": 2445,
      "Jim": 2446,
      "ustr": 2447,
      "arl": 2448,
      "Ġnods": 2449,
      "erp": 2450,
      "vous": 2451,
      "Ġsave": 2452,
      "Ġpolice": 2453,
      "Ġdisappointed": 2454,
      "Ġsnacks": 2455,
      "Ġhours": 2456,
      "Ġnut": 2457,
      "ital": 2458,
      "Ġwhisp": 2459,
      "Ġjew": 2460,
      "Where": 2461,
      "Ġthese": 2462,
      "hin": 2463,
      "ork": 2464,
      "Ġhosp": 2465,
      "ets": 2466,
      "Ġsparkly": 2467,
      "Ġgold": 2468,
      "Ġhospital": 2469,
      "Ġkitten": 2470,
      "ĠEven": 2471,
      "Ġship": 2472,
      "Ġpay": 2473,
      "ina": 2474,
      "ĠPeter": 2475,
      "obby": 2476,
      "ĠTogether": 2477,
      "Ġbored": 2478,
      "urse": 2479,
      "Ġline": 2480,
      "Ġgenerous": 2481,
      "Ġfrustr": 2482,
      "Ġtest": 2483,
      "Ġhidden": 2484,
      "Ġtaught": 2485,
      "Ġstanding": 2486,
      "Ġrad": 2487,
      "Ġscarf": 2488,
      "iff": 2489,
      "Ġchew": 2490,
      "Ġreturned": 2491,
      "Ġminutes": 2492,
      "Ġpizz": 2493,
      "Ġknowing": 2494,
      "Ġgroup": 2495,
      "Ġhur": 2496,
      "Ġplants": 2497,
      "Ġeasy": 2498,
      "Ġblow": 2499,
      "Ġbedroom": 2500,
      "Ġpolite": 2501,
      "Ġmysterious": 2502,
      "Ġwaves": 2503,
      "Ġglass": 2504,
      "Ġsighed": 2505,
      "Ġshore": 2506,
      "Ġpri": 2507,
      "Ġseed": 2508,
      "Ġwolf": 2509,
      "usie": 2510,
      "Ġseek": 2511,
      "Ġdetermined": 2512,
      "kin": 2513,
      "Stop": 2514,
      "Ġpuzzle": 2515,
      "Ġpowerful": 2516,
      "ĠBe": 2517,
      "Ġthankful": 2518,
      "fl": 2519,
      "Ġclass": 2520,
      "Ġner": 2521,
      "Ġpir": 2522,
      "Ġsandwich": 2523,
      "Ġfig": 2524,
      "Ġsleepy": 2525,
      "Ġprince": 2526,
      "Ġpassed": 2527,
      "Ġdrew": 2528,
      "'d": 2529,
      "Ġfinger": 2530,
      "Ġjelly": 2531,
      "Ġpizza": 2532,
      "Ġnervous": 2533,
      "Ġfrustrated": 2534,
      "Ġspicy": 2535,
      "Ġgun": 2536,
      "To": 2537,
      "Ġspoil": 2538,
      "Ġmatch": 2539,
      "Ġfancy": 2540,
      "Ġmessy": 2541,
      "osaur": 2542,
      "work": 2543,
      "Ġgate": 2544,
      "Ġbridge": 2545,
      "Ġlock": 2546,
      "Ġkissed": 2547,
      "Ġtick": 2548,
      "aul": 2549,
      "Ġcloset": 2550,
      "Ġfear": 2551,
      "Ġreg": 2552,
      "af": 2553,
      "Ġfeed": 2554,
      "Ġmot": 2555,
      "Ġsold": 2556,
      "Ġwis": 2557,
      "Ġgathered": 2558,
      "oop": 2559,
      "Ġav": 2560,
      "Ġexcite": 2561,
      "Ġpoor": 2562,
      "Ġcirc": 2563,
      "ote": 2564,
      "Ġhang": 2565,
      "Ġcaterp": 2566,
      "Ġcaterpill": 2567,
      "Ġesc": 2568,
      "Ġflag": 2569,
      "Ġpin": 2570,
      "Ġgrumpy": 2571,
      "Ġvan": 2572,
      "iddle": 2573,
      "ella": 2574,
      "Ġdinosaur": 2575,
      "Ġyourself": 2576,
      "ano": 2577,
      "issors": 2578,
      "Mama": 2579,
      "uce": 2580,
      "Ġanswered": 2581,
      "ĠZ": 2582,
      "Ġcries": 2583,
      "Are": 2584,
      "Ġoften": 2585,
      "itter": 2586,
      "Ġtwirl": 2587,
      "selves": 2588,
      "Ġchest": 2589,
      "sist": 2590,
      "Ġscissors": 2591,
      "Ġhopping": 2592,
      "Ġtears": 2593,
      "pack": 2594,
      "gly": 2595,
      "ĠJohnny": 2596,
      "mb": 2597,
      "Sorry": 2598,
      "ĠRex": 2599,
      "Ġmummy": 2600,
      "Ġugly": 2601,
      "Jane": 2602,
      "era": 2603,
      "Ġburn": 2604,
      "Ġcand": 2605,
      "ensive": 2606,
      "Ġdeer": 2607,
      "Ġdrop": 2608,
      "illed": 2609,
      "Ġfil": 2610,
      "Ġexcitement": 2611,
      "izzy": 2612,
      "Ġcaterpillar": 2613,
      "Ġlit": 2614,
      "ĠBr": 2615,
      "Ġworking": 2616,
      "Ġmiddle": 2617,
      "Ġexpensive": 2618,
      "Ġscr": 2619,
      "Ġsaved": 2620,
      "Ġtaken": 2621,
      "Ġok": 2622,
      "Ġtrue": 2623,
      "Ġwagged": 2624,
      "ĠLittle": 2625,
      "Ġones": 2626,
      "Ġpleased": 2627,
      "Ġcrown": 2628,
      "Ġspend": 2629,
      "Ġboring": 2630,
      "Ġpicks": 2631,
      "Ġleg": 2632,
      "que": 2633,
      "oof": 2634,
      "ugar": 2635,
      "Ġvase": 2636,
      "Ġtent": 2637,
      "Ġasking": 2638,
      "body": 2639,
      "ĠBl": 2640,
      "ual": 2641,
      "Ġbrush": 2642,
      "Ġtie": 2643,
      "ates": 2644,
      "Ġvegetables": 2645,
      "ecially": 2646,
      "Ġgiggled": 2647,
      "Ġboss": 2648,
      "Who": 2649,
      "ete": 2650,
      "ĠLeo": 2651,
      "Their": 2652,
      "Ġmistake": 2653,
      "Ġcage": 2654,
      "ser": 2655,
      "Ġgets": 2656,
      "light": 2657,
      "Ġrocket": 2658,
      "Ġcap": 2659,
      "Ġmir": 2660,
      "Ġcomfortable": 2661,
      "Ġsugar": 2662,
      "Ġeld": 2663,
      "Ġstuff": 2664,
      "Ġpacked": 2665,
      "Ġdancing": 2666,
      "pecially": 2667,
      "Ġespecially": 2668,
      "Ġwander": 2669,
      "Ġclown": 2670,
      "Sp": 2671,
      "Ġmedic": 2672,
      "Ġnumber": 2673,
      "Ġpress": 2674,
      "Ġsight": 2675,
      "Ġknight": 2676,
      "ushed": 2677,
      "ggs": 2678,
      "ots": 2679,
      "Ġfruits": 2680,
      "iness": 2681,
      "Ġeggs": 2682,
      "Ġlying": 2683,
      "Ġdrum": 2684,
      "Ġfake": 2685,
      "Ġdest": 2686,
      "ror": 2687,
      "Ġmedicine": 2688,
      "Ġwalks": 2689,
      "Ġdistance": 2690,
      "aged": 2691,
      "Ġglue": 2692,
      "Ġsplashed": 2693,
      "Ġsweetie": 2694,
      "Ġbake": 2695,
      "Ġflut": 2696,
      "Ġbone": 2697,
      "Ġdrawing": 2698,
      "Ġmoving": 2699,
      "Ġdisappeared": 2700,
      "ha": 2701,
      "Ġweek": 2702,
      "ĠOK": 2703,
      "Ġlead": 2704,
      "Ġsmelly": 2705,
      "Ġclap": 2706,
      "Ġbecome": 2707,
      "Ġlemon": 2708,
      "Ġchange": 2709,
      "Ġpray": 2710,
      "Ġfeathers": 2711,
      "Ġmoms": 2712,
      "Ġlose": 2713,
      "Ġmov": 2714,
      "Ġlicked": 2715,
      "Ġcalling": 2716,
      "ĠIf": 2717,
      "Ġtwist": 2718,
      "Ġdogs": 2719,
      "Ġbathroom": 2720,
      "Ġplayground": 2721,
      "ory": 2722,
      "yal": 2723,
      "Ġfis": 2724,
      "Ġlazy": 2725,
      "Ġroar": 2726,
      "Ġelderly": 2727,
      "Ġweak": 2728,
      "Ġincred": 2729,
      "Me": 2730,
      "Ġcri": 2731,
      "Ġgar": 2732,
      "?\".": 2733,
      "Ġbody": 2734,
      "Ġhorn": 2735,
      "Ġexam": 2736,
      "Ġcrack": 2737,
      "Ġquestions": 2738,
      "Ġadd": 2739,
      "Ġwrote": 2740,
      "Ġyog": 2741,
      "Ġyours": 2742,
      "Ġnoisy": 2743,
      "Ġfather": 2744,
      "Ġmirror": 2745,
      "uggest": 2746,
      "Ġmic": 2747,
      "Ġnod": 2748,
      "Ġsuggest": 2749,
      "elp": 2750,
      "ating": 2751,
      "eez": 2752,
      "Ġfluffy": 2753,
      "Ġskipped": 2754,
      "Ġed": 2755,
      "Ġwheel": 2756,
      "Ġeager": 2757,
      "ĠAt": 2758,
      "Ġloyal": 2759,
      "Ġlamp": 2760,
      "Ġdish": 2761,
      "Ġext": 2762,
      "Ġclear": 2763,
      "Ġfamous": 2764,
      "land": 2765,
      "Ġdig": 2766,
      "Ġstones": 2767,
      "Ġruined": 2768,
      "ination": 2769,
      "Ġrich": 2770,
      "Ġrare": 2771,
      "Ġord": 2772,
      "ĠEnd": 2773,
      "Ġtape": 2774,
      "Ġsell": 2775,
      "Ġdrank": 2776,
      "Ġcontent": 2777,
      "Ġfigure": 2778,
      "Ġqueen": 2779,
      "Ġmarch": 2780,
      "Ġincredible": 2781,
      "Ġglow": 2782,
      "Ġmap": 2783,
      "Ġshows": 2784,
      "Ġrid": 2785,
      "ti": 2786,
      "hip": 2787,
      "Ġcheck": 2788,
      "Ġjuicy": 2789,
      "Ġsoap": 2790,
      "Ġcovered": 2791,
      "Ġind": 2792,
      "Ġballs": 2793,
      "Ġsailed": 2794,
      "imp": 2795,
      "Ġrelax": 2796,
      "Ġaw": 2797,
      "Ġshoot": 2798,
      "illi": 2799,
      "Ġteam": 2800,
      "ately": 2801,
      "Ġmeasure": 2802,
      "Ġdecide": 2803,
      "Sally": 2804,
      "Ġrealised": 2805,
      "umbled": 2806,
      "Ġdiscovered": 2807,
      "Ġcoins": 2808,
      "Ġneeds": 2809,
      "Ġborrow": 2810,
      "Ġswan": 2811,
      "Joe": 2812,
      "Gra": 2813,
      "Ġstraw": 2814,
      "ĠNo": 2815,
      "fic": 2816,
      "Ġadventur": 2817,
      "ĠBlue": 2818,
      "cept": 2819,
      "Help": 2820,
      "Ġcleaned": 2821,
      "Ġbranches": 2822,
      "Ġtowel": 2823,
      "Ġboys": 2824,
      "Ġextra": 2825,
      "Ġham": 2826,
      "asing": 2827,
      "Well": 2828,
      "Ġboard": 2829,
      "Ġchicken": 2830,
      "Ġbarn": 2831,
      "Ġmod": 2832,
      "Ġtiger": 2833,
      "Ġmotor": 2834,
      "Ġtag": 2835,
      "Ġadventurous": 2836,
      "Ġjoke": 2837,
      "Ġdiffic": 2838,
      "Ġoffered": 2839,
      "Ġfine": 2840,
      "keep": 2841,
      "Ġbalance": 2842,
      "ĠSusie": 2843,
      "Ġlifted": 2844,
      "ique": 2845,
      "Ġbubbles": 2846,
      "Ġcolourful": 2847,
      "enny": 2848,
      "Ġfrown": 2849,
      "ĠMark": 2850,
      "Ġturt": 2851,
      "ĠBobby": 2852,
      "Ġeye": 2853,
      "Ġthick": 2854,
      "Ġdifficult": 2855,
      "Ġbottom": 2856,
      "Ġtrack": 2857,
      "Ġtoug": 2858,
      "alous": 2859,
      "Ġorganized": 2860,
      "Ġcover": 2861,
      "Ġhappening": 2862,
      "Ġunique": 2863,
      "rag": 2864,
      "Ġjealous": 2865,
      "Ġdolp": 2866,
      "Ġhose": 2867,
      "port": 2868,
      "Ġknife": 2869,
      "Ġweird": 2870,
      "Amy": 2871,
      "Ġisland": 2872,
      "cil": 2873,
      "Ġgarage": 2874,
      "Ġfright": 2875,
      "ĠDan": 2876,
      "Ġmanaged": 2877,
      "imed": 2878,
      "Ġhurts": 2879,
      "Ġpencil": 2880,
      "Ġonce": 2881,
      "Ġword": 2882,
      "ject": 2883,
      "Ġcrawled": 2884,
      "Ġcost": 2885,
      "Ġlearning": 2886,
      "lla": 2887,
      "Ġarg": 2888,
      "Ġcircle": 2889,
      "Ġsaying": 2890,
      "Spot": 2891,
      "Ġkindness": 2892,
      "ured": 2893,
      "Ġberries": 2894,
      "olog": 2895,
      "Ġmighty": 2896,
      "Ġballoons": 2897,
      "Ġtough": 2898,
      "Ġpointing": 2899,
      "Ġchase": 2900,
      "Ġbald": 2901,
      "Ġfavour": 2902,
      "ready": 2903,
      "Ġwand": 2904,
      "Ġter": 2905,
      "lies": 2906,
      "keeper": 2907,
      "Sue": 2908,
      "Ġshake": 2909,
      "und": 2910,
      "iv": 2911,
      "Ġjewel": 2912,
      "Ġlouder": 2913,
      "ĠBrown": 2914,
      "ipper": 2915,
      "Ġadded": 2916,
      "ages": 2917,
      "Ġbatter": 2918,
      "Ġsil": 2919,
      "Ġhunt": 2920,
      "Ġunus": 2921,
      "Ġguit": 2922,
      "Ġharder": 2923,
      "Ġguess": 2924,
      "Ġapolog": 2925,
      "Ġedge": 2926,
      "head": 2927,
      "Ġalready": 2928,
      "Ġfour": 2929,
      "ĠKitty": 2930,
      "Ġang": 2931,
      "Ġspun": 2932,
      "Ġfavourite": 2933,
      "Ġfool": 2934,
      "Ġnorm": 2935,
      "Ġwhale": 2936,
      "How": 2937,
      "Ġunusual": 2938,
      "Ġlibr": 2939,
      "ipp": 2940,
      "Ġvalu": 2941,
      "rage": 2942,
      "alk": 2943,
      "Ġenjoying": 2944,
      "Ġdizzy": 2945,
      "aw": 2946,
      "Ġhats": 2947,
      "Ġpump": 2948,
      "Ġbelonged": 2949,
      "ĠToday": 2950,
      "Ġgrace": 2951,
      "Ġwrapped": 2952,
      "Ġcheerful": 2953,
      "Ġsmoke": 2954,
      "uggled": 2955,
      "Ġimpressed": 2956,
      "Ġstrawber": 2957,
      "Ġtrucks": 2958,
      "Ġrecord": 2959,
      "Ġgiving": 2960,
      "Ġsword": 2961,
      "Ġmarket": 2962,
      "Ġgrown": 2963,
      "Ġref": 2964,
      "Ġlaughs": 2965,
      "Ġtrunk": 2966,
      "Ġnormal": 2967,
      "anged": 2968,
      "Ġgrand": 2969,
      "Ġhero": 2970,
      "Ġears": 2971,
      "Ġguitar": 2972,
      "Ġloudly": 2973,
      "ola": 2974,
      "illiant": 2975,
      "Ġharm": 2976,
      "Ġturtle": 2977,
      "Ġbanana": 2978,
      "Ġproudly": 2979,
      "Ġboxes": 2980,
      "Ġscare": 2981,
      "ature": 2982,
      "ĠFred": 2983,
      "ilt": 2984,
      "Ġbrilliant": 2985,
      "ery": 2986,
      "Ġchoose": 2987,
      "Ġbrothers": 2988,
      "Here": 2989,
      "Ġcircles": 2990,
      "Ġterri": 2991,
      "Ġbossy": 2992,
      "Ġdreamed": 2993,
      "Ġagainst": 2994,
      "Ġescape": 2995,
      "ym": 2996,
      "Ġgoat": 2997,
      "Ġinvited": 2998,
      "Ġskin": 2999,
      "Ġcab": 3000,
      "Ġhelps": 3001,
      "gy": 3002,
      "cient": 3003,
      "Ġcompet": 3004,
      "Ġpil": 3005,
      "ipe": 3006,
      "ĠPete": 3007,
      "Ġpainting": 3008,
      "Ġmeans": 3009,
      "Ġmelt": 3010,
      "Ġfrightened": 3011,
      "Ġaccept": 3012,
      "ĠEllie": 3013,
      "fast": 3014,
      "Ġpee": 3015,
      "Ġflash": 3016,
      "Ġsafely": 3017,
      "Ġdepend": 3018,
      "Ġbuttons": 3019,
      "Ġslipped": 3020,
      "Ġdesign": 3021,
      "Ġstubb": 3022,
      "Ġbirdie": 3023,
      "Ġjack": 3024,
      "Ġwrap": 3025,
      "Ġvaluable": 3026,
      "Ġcabin": 3027,
      "Ġcrayon": 3028,
      "Ġwake": 3029,
      "Ġstream": 3030,
      "Ġwalls": 3031,
      "Ġhappiness": 3032,
      "ouses": 3033,
      "Ġbreakfast": 3034,
      "Ġlog": 3035,
      "erry": 3036,
      "Ġancient": 3037,
      "edient": 3038,
      "Ġstudy": 3039,
      "Ġsuccessful": 3040,
      "Ġclay": 3041,
      "emo": 3042,
      "orge": 3043,
      "Ġknows": 3044,
      "Ġfoolish": 3045,
      "Ġtoast": 3046,
      "Ġfalls": 3047,
      "ye": 3048,
      "Ġfridge": 3049,
      "Ġlean": 3050,
      "Ġstubborn": 3051,
      "Ġunl": 3052,
      "Ġnicely": 3053,
      "atch": 3054,
      "Ġshape": 3055,
      "apping": 3056,
      "omed": 3057,
      "Ġfier": 3058,
      "Ġcudd": 3059,
      "Ġrough": 3060,
      "Ġdreams": 3061,
      "Ġmovie": 3062,
      "Ġspace": 3063,
      "Ġhouses": 3064,
      "Ġcity": 3065,
      "Ġnosy": 3066,
      "ĠMy": 3067,
      "Ġbloom": 3068,
      "Ġdelicate": 3069,
      "Ġobedient": 3070,
      "Ġfierce": 3071,
      "Ġoffice": 3072,
      "Ġtomato": 3073,
      "Ġfat": 3074,
      "Ġgrandpa": 3075,
      "ado": 3076,
      "Al": 3077,
      "laimed": 3078,
      "az": 3079,
      "Ġicy": 3080,
      "Ġcompetit": 3081,
      "Ġsuggested": 3082,
      "Ġshark": 3083,
      "Jimmy": 3084,
      "Ġdead": 3085,
      "Ġnotice": 3086,
      "Ġwagon": 3087,
      "pes": 3088,
      "Ġexclaimed": 3089,
      "Ġmem": 3090,
      "Ġkinds": 3091,
      "Ġmixed": 3092,
      "Ġwiped": 3093,
      "Ġcher": 3094,
      "Ġuseful": 3095,
      "ĠAlice": 3096,
      "ext": 3097,
      "Ġpoured": 3098,
      "Ġshells": 3099,
      "uth": 3100,
      "ÅĵLet": 3101,
      "Ġstri": 3102,
      "ĠBobo": 3103,
      "Ġlights": 3104,
      "Ġtools": 3105,
      "Ġlocked": 3106,
      "Ġsounded": 3107,
      "Ġthu": 3108,
      "Ġstove": 3109,
      "Ġexcitedly": 3110,
      "Ġexplored": 3111,
      "ĠRose": 3112,
      "Ġaunt": 3113,
      "wards": 3114,
      "Ġegg": 3115,
      "Ġfrag": 3116,
      "eorge": 3117,
      "Billy": 3118,
      "Ġrose": 3119,
      "!\".": 3120,
      "Ġson": 3121,
      "oppy": 3122,
      "Ġshadow": 3123,
      "Mummy": 3124,
      "Ġtimes": 3125,
      "arry": 3126,
      "Ġcro": 3127,
      "Ġenc": 3128,
      "ĠMummy": 3129,
      "ĠTweety": 3130,
      "Ġbags": 3131,
      "Ġfountain": 3132,
      "ention": 3133,
      "Ġthemselves": 3134,
      "oot": 3135,
      "Ġstumbled": 3136,
      "Ġbushes": 3137,
      "Ġweal": 3138,
      "ache": 3139,
      "dom": 3140,
      "Ġlow": 3141,
      "Ġshowing": 3142,
      "Ġspoiled": 3143,
      "Ġfingers": 3144,
      "Ġperform": 3145,
      "Ġlab": 3146,
      "Ġabove": 3147,
      "vice": 3148,
      "Ġthoughtful": 3149,
      "Ġresc": 3150,
      "Ġindepend": 3151,
      "kn": 3152,
      "Ġsmaller": 3153,
      "Ġwitch": 3154,
      "Ġdough": 3155,
      "na": 3156,
      "Ġfragile": 3157,
      "Ġdependable": 3158,
      "ray": 3159,
      "Ġraced": 3160,
      "Ġjog": 3161,
      "arth": 3162,
      "Ġplayful": 3163,
      "inal": 3164,
      "Ġseem": 3165,
      "Ġhelm": 3166,
      "Ġspinning": 3167,
      "Ġeng": 3168,
      "Ġtele": 3169,
      "corn": 3170,
      "Ġclock": 3171,
      "Ġbrightly": 3172,
      "ines": 3173,
      "Ġprint": 3174,
      "Ġrode": 3175,
      "Ġstretch": 3176,
      "Ġparrot": 3177,
      "ormous": 3178,
      "ĠU": 3179,
      "Ġdelighted": 3180,
      "Ġbuilt": 3181,
      "ĠElla": 3182,
      "Ġadmired": 3183,
      "Ġenormous": 3184,
      "Ġlaw": 3185,
      "Ġkicked": 3186,
      "Ġroof": 3187,
      "Ġcounted": 3188,
      "Ġjam": 3189,
      "Ġswe": 3190,
      "Ġrat": 3191,
      "Ġpractice": 3192,
      "reen": 3193,
      "Ġorig": 3194,
      "Ġways": 3195,
      "Ġchanged": 3196,
      "ĠBella": 3197,
      "ĠMrs": 3198,
      "Ġshone": 3199,
      "Ġsunfl": 3200,
      "Ġcop": 3201,
      "Ġreminded": 3202,
      "ĠMar": 3203,
      "Ġtwig": 3204,
      "Ġacorn": 3205,
      "ither": 3206,
      "Ġcam": 3207,
      "ience": 3208,
      "Ġsniff": 3209,
      "Ġzip": 3210,
      "eeze": 3211,
      "Ġhammer": 3212,
      "Ġindependent": 3213,
      "ĠYour": 3214,
      "Ġusing": 3215,
      "There": 3216,
      "Ġbitter": 3217,
      "Ġhanded": 3218,
      "Ġwhispered": 3219,
      "Ġhoop": 3220,
      "mbre": 3221,
      "known": 3222,
      "Ġchose": 3223,
      "Ġchir": 3224,
      "anut": 3225,
      "Ġloll": 3226,
      "Ġjolly": 3227,
      "Ġumbre": 3228,
      "Ġcone": 3229,
      "Ġtunn": 3230,
      "Ġsolve": 3231,
      "Ġstronger": 3232,
      "Ġbees": 3233,
      "Ġserious": 3234,
      "ipop": 3235,
      "Ġoriginal": 3236,
      "Ġtummy": 3237,
      "Ġsteal": 3238,
      "Ġbeak": 3239,
      "Ġbrace": 3240,
      "Ġterrible": 3241,
      "ÅĵYes": 3242,
      "Ġmis": 3243,
      "Ġpopcorn": 3244,
      "Ġfre": 3245,
      "Ġlollipop": 3246,
      "Ġpainted": 3247,
      "Em": 3248,
      "Ġboats": 3249,
      "Ġallowed": 3250,
      "Ġhairy": 3251,
      "ict": 3252,
      "Ġmoder": 3253,
      "iable": 3254,
      "Ġsauce": 3255,
      "Ġcleaning": 3256,
      "Ġunknown": 3257,
      "Ġleaving": 3258,
      "Ġdust": 3259,
      "Ġgasped": 3260,
      "ĠBu": 3261,
      "ĠFr": 3262,
      "Ġfinding": 3263,
      "Ġjoined": 3264,
      "Ġguard": 3265,
      "Ġsalad": 3266,
      "Ġpotato": 3267,
      "het": 3268,
      "Ġbean": 3269,
      "Ġpumpkin": 3270,
      "See": 3271,
      "upid": 3272,
      "iew": 3273,
      "Ġpicking": 3274,
      "Ġclum": 3275,
      "inary": 3276,
      "Ġdove": 3277,
      "anger": 3278,
      "Ġbump": 3279,
      "ĠNemo": 3280,
      "Ġhalf": 3281,
      "Ġsink": 3282,
      "amond": 3283,
      "Ġcostum": 3284,
      "uring": 3285,
      "Ġyet": 3286,
      "robe": 3287,
      "ĠDave": 3288,
      "Ġmetal": 3289,
      "Ġtank": 3290,
      "Ġbounce": 3291,
      "Ġreliable": 3292,
      "Ġpost": 3293,
      "Ġtor": 3294,
      "Ġview": 3295,
      "Ġdoesn": 3296,
      "Ġthose": 3297,
      "ĠGrandpa": 3298,
      "Ġforth": 3299,
      "aghet": 3300,
      "aghetti": 3301,
      "Ġdiamond": 3302,
      "Ġdolphin": 3303,
      "Ġadvice": 3304,
      "ĠSn": 3305,
      "com": 3306,
      "Ġhay": 3307,
      "Ġbarber": 3308,
      "Ġmodern": 3309,
      "Ġstamp": 3310,
      "Ġrubb": 3311,
      "Ġthinking": 3312,
      "Ġgem": 3313,
      "Ġing": 3314,
      "Ġholds": 3315,
      "gu": 3316,
      "ĠMike": 3317,
      "ebra": 3318,
      "Ġpirate": 3319,
      "ugged": 3320,
      "Ġmarble": 3321,
      "Ġcreate": 3322,
      "Ġregular": 3323,
      "Jill": 3324,
      "redient": 3325,
      "Ġingredient": 3326,
      "Ġclumsy": 3327,
      "Ġsleeping": 3328,
      "Ġsearching": 3329,
      "Ġstairs": 3330,
      "Ġwealthy": 3331,
      "Ġyarn": 3332,
      "Ġrushed": 3333,
      "Ġstupid": 3334,
      "Ġprep": 3335,
      "ilty": 3336,
      "ĠWhenever": 3337,
      "Ġtelling": 3338,
      "ĠMandy": 3339,
      "Ġspaghetti": 3340,
      "Ġguilty": 3341,
      "Ġcheap": 3342,
      "Ġpeanut": 3343,
      "Ġgoose": 3344,
      "Ġchar": 3345,
      "ÅĵWhat": 3346,
      "ophie": 3347,
      "Ġrub": 3348,
      "Ġmagn": 3349,
      "ations": 3350,
      "Ġflex": 3351,
      "Ġcompass": 3352,
      "Ġopens": 3353,
      "Ġmask": 3354,
      "Ġpatch": 3355,
      "Ġstat": 3356,
      "Ġarrow": 3357,
      "Ġzebra": 3358,
      "Ġengine": 3359,
      "io": 3360,
      "Ġthunder": 3361,
      "Ġknock": 3362,
      "Ġsquare": 3363,
      "illa": 3364,
      "eezed": 3365,
      "irsty": 3366,
      "Ġangel": 3367,
      "Ġcur": 3368,
      "Ġgraceful": 3369,
      "Ġcamera": 3370,
      "Ġumbrella": 3371,
      "cod": 3372,
      "Ġdriving": 3373,
      "Ġbull": 3374,
      "Ġcrazy": 3375,
      "âĤ¬âĢ": 3376,
      "Ġshiver": 3377,
      "Ġwashed": 3378,
      "Ġcarrying": 3379,
      "Go": 3380,
      "Ġstage": 3381,
      "isk": 3382,
      "Ġpopular": 3383,
      "Ġbeet": 3384,
      "Ġdull": 3385,
      "umbers": 3386,
      "ĠDucky": 3387,
      "ÅĵIt": 3388,
      "Ġmissing": 3389,
      "Ġsparkled": 3390,
      "Ġfriendship": 3391,
      "Ġtruth": 3392,
      "Ġmeal": 3393,
      "Ġseeds": 3394,
      "fa": 3395,
      "Ġflexible": 3396,
      "Ġimpressive": 3397,
      "Ġsne": 3398,
      "Ġtied": 3399,
      "Ġpebble": 3400,
      "time": 3401,
      "Ġcareless": 3402,
      "Ġlibrary": 3403,
      "Ġimagined": 3404,
      "Ġcomb": 3405,
      "uper": 3406,
      "Ġdeliver": 3407,
      "Ġnature": 3408,
      "Ġshel": 3409,
      "Ġending": 3410,
      "Ġpatter": 3411,
      "Ġdestro": 3412,
      "Ġjacket": 3413,
      "Ġpersist": 3414,
      "Ġreward": 3415,
      "Ġhandle": 3416,
      "ision": 3417,
      "Ġfresh": 3418,
      "Ġrubbed": 3419,
      "Ġingredients": 3420,
      "Ġdreaming": 3421,
      "Ġshocked": 3422,
      "ric": 3423,
      "Ġprize": 3424,
      "oomy": 3425,
      "Ġsudden": 3426,
      "Ġcrocod": 3427,
      "Ġload": 3428,
      "Ġenth": 3429,
      "ief": 3430,
      "ibb": 3431,
      "Ġpige": 3432,
      "Ġpattern": 3433,
      "Ġcompassion": 3434,
      "Ġenvel": 3435,
      "Ġflashlight": 3436,
      "Ġthirsty": 3437,
      "Ġsadly": 3438,
      "Ġencou": 3439,
      "ĠFin": 3440,
      "Ġstranger": 3441,
      "Ġenthus": 3442,
      "ince": 3443,
      "Ġwheels": 3444,
      "Ġdesk": 3445,
      "ÅĵLetÃ¢": 3446,
      "ement": 3447,
      "arsh": 3448,
      "Ġreading": 3449,
      "Ġwire": 3450,
      "Ġdiscover": 3451,
      "Ġearly": 3452,
      "Ġmailbox": 3453,
      "Ġfork": 3454,
      "Ġsuit": 3455,
      "Ġnumbers": 3456,
      "Ġtem": 3457,
      "Ġpeeked": 3458,
      "Ġpenny": 3459,
      "Ġbutterflies": 3460,
      "awn": 3461,
      "Ġcryst": 3462,
      "Ġspilled": 3463,
      "Ġbracelet": 3464,
      "Ġtorn": 3465,
      "Ġrug": 3466,
      "Ġgum": 3467,
      "Ġstops": 3468,
      "loo": 3469,
      "Ġrece": 3470,
      "Ġenv": 3471,
      "Ġcomput": 3472,
      "Ġahead": 3473,
      "Ġspring": 3474,
      "bled": 3475,
      "Ġorder": 3476,
      "Ġtowers": 3477,
      "comfort": 3478,
      "Ġsorts": 3479,
      "Ġobject": 3480,
      "ellig": 3481,
      "Ġwing": 3482,
      "ĠBear": 3483,
      "Ġbent": 3484,
      "Ġcere": 3485,
      "Ġanx": 3486,
      "Ġsurf": 3487,
      "Ġpengu": 3488,
      "Ġearth": 3489,
      "Ġintellig": 3490,
      "Ġwarned": 3491,
      "Ġwindows": 3492,
      "ĠWhile": 3493,
      "Ġspoke": 3494,
      "Ġpow": 3495,
      "Ġpup": 3496,
      "gest": 3497,
      "Ġhumble": 3498,
      "Ġuncomfort": 3499,
      "Ġavo": 3500,
      "Ġpant": 3501,
      "Ġnote": 3502,
      "Ġuncomfortable": 3503,
      "Ġplaced": 3504,
      "Yay": 3505,
      "iches": 3506,
      "Ġsunflower": 3507,
      "Ġpale": 3508,
      "Ġtravel": 3509,
      "Ow": 3510,
      "Ġbadly": 3511,
      "ĠPe": 3512,
      "Ġolder": 3513,
      "Ġslides": 3514,
      "Ġanxious": 3515,
      "ĠBill": 3516,
      "ikes": 3517,
      "Ġbiggest": 3518,
      "Ġscale": 3519,
      "Ġcompl": 3520,
      "ĠcouldnÃ¢": 3521,
      "Ġstack": 3522,
      "Ġflute": 3523,
      "Ġtrap": 3524,
      "Ġstatue": 3525,
      "ĠKim": 3526,
      "Ġscoot": 3527,
      "Ġcounting": 3528,
      "Ġgrowing": 3529,
      "Ġcooking": 3530,
      "Ġcomplet": 3531,
      "Ġliz": 3532,
      "Ġtunnel": 3533,
      "ĠToby": 3534,
      "Ġbeetle": 3535,
      "Ġcelebrate": 3536,
      "host": 3537,
      "Ġmel": 3538,
      "Ġcupboard": 3539,
      "Ġmush": 3540,
      "Ġsofa": 3541,
      "ĠHere": 3542,
      "Ġnail": 3543,
      "Ġharmless": 3544,
      "Ġscatter": 3545,
      "ĠLola": 3546,
      "Ġbeauty": 3547,
      "Ġmole": 3548,
      "Ġdeaf": 3549,
      "Ġvalue": 3550,
      "Ġnurse": 3551,
      "Ġsuper": 3552,
      "Ġperm": 3553,
      "Ġer": 3554,
      "Ġshut": 3555,
      "Ġpersistent": 3556,
      "Ġjumps": 3557,
      "Ġcrocodile": 3558,
      "Ġhung": 3559,
      "While": 3560,
      "Ġghost": 3561,
      "Ġgifted": 3562,
      "Ġrefused": 3563,
      "Ġcharming": 3564,
      "Ġtrick": 3565,
      "ĠGive": 3566,
      "Ġneat": 3567,
      "Ġnames": 3568,
      "Ġcourage": 3569,
      "ĠGeorge": 3570,
      "opus": 3571,
      "Ġyawn": 3572,
      "Ġflour": 3573,
      "ctopus": 3574,
      "Ġcrane": 3575,
      "Ġcurt": 3576,
      "Ġpretending": 3577,
      "cream": 3578,
      "Ġpony": 3579,
      "Ġcereal": 3580,
      "Ġbase": 3581,
      "Ġsandwiches": 3582,
      "ices": 3583,
      "Mary": 3584,
      "Ġraven": 3585,
      "Ġsnuggled": 3586,
      "Ġcurtain": 3587,
      "Ġsupport": 3588,
      "Ġdestroy": 3589,
      "Ġtur": 3590,
      "Ġordinary": 3591,
      "Ġchasing": 3592,
      "Ġuniver": 3593,
      "aid": 3594,
      "ud": 3595,
      "ĠLook": 3596,
      "Ġquestion": 3597,
      "Ġenvelope": 3598,
      "aches": 3599,
      "Ġdrawer": 3600,
      "Ġtriang": 3601,
      "Ġvi": 3602,
      "Ġcamp": 3603,
      "Ġsett": 3604,
      "used": 3605,
      "Ġcomputer": 3606,
      "Ġoctopus": 3607,
      "Ġattract": 3608,
      "Ġrules": 3609,
      "Ġcrawl": 3610,
      "Ġlively": 3611,
      "Ġsend": 3612,
      "Ġgloomy": 3613,
      "Ġcartoon": 3614,
      "aby": 3615,
      "Ġuncle": 3616,
      "Ġintelligent": 3617,
      "ips": 3618,
      "Ġmay": 3619,
      "Ġpiano": 3620,
      "Daisy": 3621,
      "Ġspeed": 3622,
      "Ġpackage": 3623,
      "Ġblueber": 3624,
      "Ġshaking": 3625,
      "cu": 3626,
      "Ġhelmet": 3627,
      "Ġcrystal": 3628,
      "Ġneedle": 3629,
      "Ġmushroom": 3630,
      "Ġturkey": 3631,
      "oe": 3632,
      "ĠEventually": 3633,
      "Ġcollar": 3634,
      "Ġparade": 3635,
      "Ġcreatures": 3636,
      "stri": 3637,
      "uddy": 3638,
      "heart": 3639,
      "ÅĵThat": 3640,
      "Ġhurry": 3641,
      "Ġtwirled": 3642,
      "Ġphot": 3643,
      "Ġlizard": 3644,
      "erable": 3645,
      "enry": 3646,
      "illie": 3647,
      "Re": 3648,
      "aff": 3649,
      "ubby": 3650,
      "orant": 3651,
      "Ġalert": 3652,
      "Ġmiserable": 3653,
      "Ġthief": 3654,
      "gust": 3655,
      "Ġstation": 3656,
      "Ġsoldier": 3657,
      "Ġhunter": 3658,
      "Ġpepper": 3659,
      "ceed": 3660,
      "Ġtask": 3661,
      "arlie": 3662,
      "Ġanywhere": 3663,
      "Ġdug": 3664,
      "Ġdisgust": 3665,
      "Ġbicy": 3666,
      "Ġfireman": 3667,
      "ĠJoey": 3668,
      "Ġener": 3669,
      "cut": 3670,
      "Ġcarp": 3671,
      "iest": 3672,
      "Ġwishes": 3673,
      "Ġseal": 3674,
      "Ġresist": 3675,
      "ĠPolly": 3676,
      "Ġled": 3677,
      "Ġvide": 3678,
      "Ġbeep": 3679,
      "Ġignorant": 3680,
      "Ġbandage": 3681,
      "ĠCl": 3682,
      "Ġstickers": 3683,
      "coa": 3684,
      "Ġscreen": 3685,
      "Ġradio": 3686,
      "Ġhelpless": 3687,
      "Ġbounced": 3688,
      "tter": 3689,
      "Ġtrash": 3690,
      "Give": 3691,
      "Ġsecond": 3692,
      "Ġleash": 3693,
      "Ġrepe": 3694,
      "Ġpracticed": 3695,
      "Ġmuff": 3696,
      "Ġshine": 3697,
      "Ġchance": 3698,
      "Ġletters": 3699,
      "Ġattractive": 3700,
      "Ġimpat": 3701,
      "Ġmill": 3702,
      "Ġstirred": 3703,
      "Ġcricket": 3704,
      "Ġjeep": 3705,
      "Ġstretched": 3706,
      "Ġnobody": 3707,
      "urb": 3708,
      "Ġthread": 3709,
      "Ġpasta": 3710,
      "Ġcube": 3711,
      "Ġpand": 3712,
      "Ġchubby": 3713,
      "Ġtooth": 3714,
      "ummer": 3715,
      "Ġfu": 3716,
      "Ġpigeon": 3717,
      "ses": 3718,
      "If": 3719,
      "Ġjet": 3720,
      "Ġgir": 3721,
      "Ġcompassionate": 3722,
      "ccol": 3723,
      "Ġclub": 3724,
      "ccoli": 3725,
      "Ġtrump": 3726,
      "arian": 3727,
      "Ġdisturb": 3728,
      "orable": 3729,
      "Ġdecorate": 3730,
      "Ġcocoa": 3731,
      "Ġbrighter": 3732,
      "Ġjug": 3733,
      "Benny": 3734,
      "Ġsteps": 3735,
      "Ġimpatient": 3736,
      "Ġtire": 3737,
      "Ġcompetitive": 3738,
      "Ġfurther": 3739,
      "Ġotter": 3740,
      "Ġrespectful": 3741,
      "Ġsucceed": 3742,
      "Ġtroubled": 3743,
      "Ġpressed": 3744,
      "olin": 3745,
      "Ġitself": 3746,
      "aked": 3747,
      "Ġbet": 3748,
      "Ġostri": 3749,
      "noon": 3750,
      "ĠWh": 3751,
      "Ġcandle": 3752,
      "Ġmug": 3753,
      "Ġafternoon": 3754,
      "Ġattic": 3755,
      "Ġrestless": 3756,
      "Ġstarts": 3757,
      "Ġpun": 3758,
      "Ġtap": 3759,
      "Ġsomewhere": 3760,
      "ĠAre": 3761,
      "Ġribb": 3762,
      "aurant": 3763,
      "stic": 3764,
      "Ġdess": 3765,
      "Ġquar": 3766,
      "Ġcarpet": 3767,
      "Ġanyway": 3768,
      "Ġshouts": 3769,
      "Ġshoe": 3770,
      "Ġdisgusting": 3771,
      "Ġadorable": 3772,
      "Once": 3773,
      "Ġrestaurant": 3774,
      "Ġskip": 3775,
      "Ġleop": 3776,
      "Ġfort": 3777,
      "gn": 3778,
      "Ġpants": 3779,
      "Ġvine": 3780,
      "Ġtray": 3781,
      "Ġnuts": 3782,
      "Ġwaff": 3783,
      "Ġcase": 3784,
      "come": 3785,
      "Ġgor": 3786,
      "Ġfearful": 3787,
      "Ġscrew": 3788,
      "Ġenvious": 3789,
      "Ġsweetheart": 3790,
      "opter": 3791,
      "Ġcards": 3792,
      "Ġallig": 3793,
      "icopter": 3794,
      "ĠSh": 3795,
      "iastic": 3796,
      "Ġdistant": 3797,
      "Ġbroccoli": 3798,
      "Ġenthusiastic": 3799,
      "Ġhipp": 3800,
      "Ġfilthy": 3801,
      "Ġgiggle": 3802,
      "Ġexper": 3803,
      "Ġtrumpet": 3804,
      "Ġcooked": 3805,
      "Ġhelicopter": 3806,
      "Ġmonkeys": 3807,
      "night": 3808,
      "Ġreco": 3809,
      "Ġpor": 3810,
      "ĠWhere": 3811,
      "irit": 3812,
      "Ġsandbox": 3813,
      "aroo": 3814,
      "angaroo": 3815,
      "Ġhook": 3816,
      "ĠWould": 3817,
      "ĠLee": 3818,
      "gging": 3819,
      "Ġbri": 3820,
      "Ġadmire": 3821,
      "Ġnowhere": 3822,
      "Ġten": 3823,
      "Ġharsh": 3824,
      "Ġbackpack": 3825,
      "Ġsoar": 3826,
      "ĠBrownie": 3827,
      "Ġsent": 3828,
      "Ġbelt": 3829,
      "Ġbatht": 3830,
      "gie": 3831,
      "Ġexplain": 3832,
      "Ġscooter": 3833,
      "Ġants": 3834,
      "Ġmeas": 3835,
      "opl": 3836,
      "Ġpoem": 3837,
      "eropl": 3838,
      "Ġcountry": 3839,
      "cycle": 3840,
      "Ġbathtub": 3841,
      "ĠAlex": 3842,
      "Ġpipe": 3843,
      "Ġaeropl": 3844,
      "Ġbarking": 3845,
      "Ġquite": 3846,
      "Ġunpack": 3847,
      "stairs": 3848,
      "Ġcows": 3849,
      "par": 3850,
      "Ġspeak": 3851,
      "Ġkangaroo": 3852,
      "Ġlid": 3853,
      "Ġsquash": 3854,
      "Ġleopard": 3855,
      "Ġmama": 3856,
      "Ġhappier": 3857,
      "Ġspell": 3858,
      "Ġtemp": 3859,
      "ĠSophie": 3860,
      "Ġrepair": 3861,
      "Ġlistening": 3862,
      "llie": 3863,
      "Ġbicycle": 3864,
      "Ġsepar": 3865,
      "imi": 3866,
      "ĠEverything": 3867,
      "Ġsummer": 3868,
      "Ġstared": 3869,
      "Ġcush": 3870,
      "Ġgrabs": 3871,
      "Ġmessage": 3872,
      "Ġbreat": 3873,
      "ĠdidnÃ¢": 3874,
      "uct": 3875,
      "Ġostrich": 3876,
      "Ġfirework": 3877,
      "Ġhuman": 3878,
      "Ġloop": 3879,
      "Ġgiven": 3880,
      "Ġcomet": 3881,
      "Ġmule": 3882,
      "hood": 3883,
      "apa": 3884,
      "Ġsort": 3885,
      "ĠPat": 3886,
      "Ġimpro": 3887,
      "ĠAndy": 3888,
      "Ġgorilla": 3889,
      "Ġmodest": 3890,
      "Ġpaid": 3891,
      "Ġfinds": 3892,
      "year": 3893,
      "Ġyogurt": 3894,
      "Ġdessert": 3895,
      "Ġmeat": 3896,
      "Ġobser": 3897,
      "Ġviolin": 3898,
      "Ġur": 3899,
      "Bye": 3900,
      "Ġhedge": 3901,
      "ipping": 3902,
      "ĠSm": 3903,
      "Ġspirit": 3904,
      "Ġpulls": 3905,
      "Ġtripped": 3906,
      "shed": 3907,
      "Ġjellyfish": 3908,
      "Ġmelon": 3909,
      "Ġsplit": 3910,
      "Ġpaws": 3911,
      "Ġalligator": 3912,
      "Ġrescue": 3913,
      "Ġsize": 3914,
      "Ġholes": 3915,
      "Ġprov": 3916,
      "ucked": 3917,
      "Ġroared": 3918,
      "Ġfive": 3919,
      "Ġforgave": 3920,
      "Alice": 3921,
      "Ġcats": 3922,
      "Ġwheat": 3923,
      "Ġpurse": 3924,
      "Ġrecogn": 3925,
      "Ġhippo": 3926,
      "Everyone": 3927,
      "Ġpilot": 3928,
      "Ġhall": 3929,
      "Grandma": 3930,
      "Ġtax": 3931,
      "Ġsheet": 3932,
      "Ġpal": 3933,
      "Ġcact": 3934,
      "Ġinse": 3935,
      "Ġpushing": 3936,
      "ophone": 3937,
      "Ġbikes": 3938,
      "Ġorganize": 3939,
      "ci": 3940,
      "Ġswinging": 3941,
      "Ġsle": 3942,
      "Ġraft": 3943,
      "Ġsalt": 3944,
      "Ġscold": 3945,
      "Ġstarting": 3946,
      "Ġshade": 3947,
      "Ġbehave": 3948,
      "Ġbin": 3949,
      "Ġlightning": 3950,
      "ĠSnow": 3951,
      "Ġfle": 3952,
      "Ġoat": 3953,
      "Ġrice": 3954,
      "Ġhaircut": 3955,
      "Ġtriangle": 3956,
      "eer": 3957,
      "Ġbuzz": 3958,
      "Ġenergy": 3959,
      "iskers": 3960,
      "ĠTweetie": 3961,
      "ÅĵYou": 3962,
      "Ġbur": 3963,
      "Ġknot": 3964,
      "Ġfrowned": 3965,
      "bul": 3966,
      "Ġlear": 3967,
      "aled": 3968,
      "Ġlearnt": 3969,
      "Ġeither": 3970,
      "Ġporch": 3971,
      "Ġmath": 3972,
      "Ġriding": 3973,
      "Ġped": 3974,
      "Ġlip": 3975,
      "lcano": 3976,
      "seum": 3977,
      "Ġtrains": 3978,
      "ebook": 3979,
      "Ġended": 3980,
      "Ġnotebook": 3981,
      "Ġsticker": 3982,
      "iling": 3983,
      "inking": 3984,
      "Ġlend": 3985,
      "Ġwallet": 3986,
      "Ġluck": 3987,
      "Ġevening": 3988,
      "reci": 3989,
      "Ġpanda": 3990,
      "Ġcactus": 3991,
      "Ġjokes": 3992,
      "Ġchalk": 3993,
      "Ġbananas": 3994,
      "Ġpapers": 3995,
      "Ġrod": 3996,
      "Ġmuseum": 3997,
      "Ġsweater": 3998,
      "ĠPaul": 3999,
      "Ġappreci": 4000,
      "Ġlions": 4001,
      "Ġpalace": 4002,
      "Daddy": 4003,
      "Ġtaxi": 4004,
      "Ġvolcano": 4005,
      "ube": 4006,
      "Ġshopkeeper": 4007,
      "Ġchain": 4008,
      "Ġstrawberry": 4009,
      "Ġbears": 4010,
      "Ġrolling": 4011,
      "Ġboots": 4012,
      "Ġeras": 4013,
      "Ġhadn": 4014,
      "ĠJerry": 4015,
      "astic": 4016,
      "Ġneighbour": 4017,
      "Ġbarrel": 4018,
      "Ġshakes": 4019,
      "ĠTr": 4020,
      "ffe": 4021,
      "Ġmicr": 4022,
      "icer": 4023,
      "ffee": 4024,
      "ooped": 4025,
      "Ġsilver": 4026,
      "urch": 4027,
      "Ġlaund": 4028,
      "Ġalive": 4029,
      "Ġsmells": 4030,
      "Ġmild": 4031,
      "play": 4032,
      "Ġreind": 4033,
      "Ġsock": 4034,
      "ĠRed": 4035,
      "Ġlaundry": 4036,
      "Ġsteak": 4037,
      "Ġavoc": 4038,
      "Ġink": 4039,
      "Ġpole": 4040,
      "Ġstrugg": 4041,
      "iron": 4042,
      "Ġpushes": 4043,
      "Ġputting": 4044,
      "Ġvisited": 4045,
      "Ġgoal": 4046,
      "Ġsoftly": 4047,
      "Ġmagnet": 4048,
      "Ġjudge": 4049,
      "edy": 4050,
      "Ġtricks": 4051,
      "Ġdrawings": 4052,
      "Ġmicrophone": 4053,
      "Ġclapping": 4054,
      "Ġpad": 4055,
      "Ġol": 4056,
      "Ġhive": 4057,
      "Ġshield": 4058,
      "Ġtube": 4059,
      "Ġleaned": 4060,
      "Ġcolours": 4061,
      "Ġsailor": 4062,
      "Ġshovel": 4063,
      "Ġairport": 4064,
      "Ġzoomed": 4065,
      "Ġfalling": 4066,
      "Ġrag": 4067,
      "Ġbelongs": 4068,
      "Ġshelter": 4069,
      "ĠBet": 4070,
      "Ha": 4071,
      "aggie": 4072,
      "Ġunlock": 4073,
      "Ġsprink": 4074,
      "Ġchecked": 4075,
      "elery": 4076,
      "happy": 4077,
      "Ġinsist": 4078,
      "Ġpenguin": 4079,
      "Ġquarrel": 4080,
      "Ġambul": 4081,
      "Ġclimbing": 4082,
      "Ġmarched": 4083,
      "Ġgro": 4084,
      "Ġdisplay": 4085,
      "Ġreindeer": 4086,
      "cast": 4087,
      "hino": 4088,
      "Ġsaus": 4089,
      "ense": 4090,
      "Ġaeroplane": 4091,
      "Ġdive": 4092,
      "Ġdishes": 4093,
      "ophy": 4094,
      "Ġpolish": 4095,
      "Ġbarks": 4096,
      "ges": 4097,
      "Ġavail": 4098,
      "ĠdonÃ¢": 4099,
      "Ġfields": 4100,
      "ĠPapa": 4101,
      "Ġgrapes": 4102,
      "ĠBunny": 4103,
      "Ġsandcast": 4104,
      "Ġambulance": 4105,
      "Ġpeek": 4106,
      "ait": 4107,
      "Ġapologized": 4108,
      "Ġyach": 4109,
      "Ġsoil": 4110,
      "Ġcoffee": 4111,
      "Ġskill": 4112,
      "sely": 4113,
      "Ġcostume": 4114,
      "Ġelev": 4115,
      "Ġoy": 4116,
      "Ġtrophy": 4117,
      "ĠWill": 4118,
      "Ġfeelings": 4119,
      "ĠOr": 4120,
      "Ġplanet": 4121,
      "Ġhoping": 4122,
      "anic": 4123,
      "Ġfilm": 4124,
      "Ġprun": 4125,
      "Ġart": 4126,
      "Ġrubber": 4127,
      "ron": 4128,
      "Ġunhappy": 4129,
      "Ġdrops": 4130,
      "Ġshrimp": 4131,
      "nger": 4132,
      "Ġmedal": 4133,
      "Ġkitty": 4134,
      "âĤ¬âĢľ": 4135,
      "Ġthanks": 4136,
      "Ġraining": 4137,
      "Ġmen": 4138,
      "chanic": 4139,
      "Ġstom": 4140,
      "Ġminute": 4141,
      "Ġelevator": 4142,
      "Ġcelery": 4143,
      "Ġcord": 4144,
      "Ġonion": 4145,
      "Ġrhino": 4146,
      "ĠBuddy": 4147,
      "Ġavailable": 4148,
      "ected": 4149,
      "Ġeraser": 4150,
      "Ġincl": 4151,
      "Ġpage": 4152,
      "Ġshort": 4153,
      "Ġyacht": 4154,
      "reeze": 4155,
      "Ġshouldn": 4156,
      "Ġfisher": 4157,
      "Ġperfectly": 4158,
      "Ġimagine": 4159,
      "Ġwool": 4160,
      "Ġmarry": 4161,
      "Ġwinter": 4162,
      "Ġbasketball": 4163,
      "Ġmechanic": 4164,
      "Ġdiary": 4165,
      "nam": 4166,
      "Ġbul": 4167,
      "Ġherb": 4168,
      "Ġflies": 4169,
      "Ġcomplete": 4170,
      "Ġrever": 4171,
      "Ġappl": 4172,
      "Ġclosely": 4173,
      "Ġcardboard": 4174,
      "Ġinsect": 4175,
      "Ġmagaz": 4176,
      "Ġeagerly": 4177,
      "Ġplayer": 4178,
      "ĠWhiskers": 4179,
      "eath": 4180,
      "Ġjournal": 4181,
      "Ġbaking": 4182,
      "Ġvend": 4183,
      "Ġquit": 4184,
      "Ġfurn": 4185,
      "Ġglove": 4186,
      "iture": 4187,
      "ĠSmith": 4188,
      "Ġdisag": 4189,
      "ĠSandy": 4190,
      "ĠTed": 4191,
      "Ġfurniture": 4192,
      "Ġstuffed": 4193,
      "ĠCharlie": 4194,
      "Ġtub": 4195,
      "Ġbreaks": 4196,
      "Ġimagination": 4197,
      "Ġbulb": 4198,
      "Ġtreasures": 4199,
      "Ġchurch": 4200,
      "gen": 4201,
      "ecause": 4202,
      "Ġcounter": 4203,
      "Ġwife": 4204,
      "any": 4205,
      "Ġheaded": 4206,
      "ĠRo": 4207,
      "Ġcooler": 4208,
      "azz": 4209,
      "Ġpair": 4210,
      "Ġfreez": 4211,
      "Ġfrogs": 4212,
      "Ġtut": 4213,
      "quit": 4214,
      "Ġskull": 4215,
      "mand": 4216,
      "ories": 4217,
      "Ġpit": 4218,
      "Ġknob": 4219,
      "ween": 4220,
      "Ġfactor": 4221,
      "stead": 4222,
      "right": 4223,
      "Ġswitch": 4224,
      "Ġfootball": 4225,
      "place": 4226,
      "ĠHenry": 4227,
      "Ġoffer": 4228,
      "ides": 4229,
      "Ġsunset": 4230,
      "Ġbetween": 4231,
      "Ġlie": 4232,
      "ifl": 4233,
      "aulifl": 4234,
      "Jenny": 4235,
      "Ġcheek": 4236,
      "Ġsym": 4237,
      "Ġswung": 4238,
      "Ġfactory": 4239,
      "Ġcups": 4240,
      "ĠMimi": 4241,
      "Ġmotorcycle": 4242,
      "Ġchirp": 4243,
      "Ġmos": 4244,
      "quito": 4245,
      "Ġflame": 4246,
      "Ġtwink": 4247,
      "Ġshouting": 4248,
      "..": 4249,
      "nament": 4250,
      "Ġpainter": 4251,
      "ĠLilly": 4252,
      "Ġgolf": 4253,
      "Ġpeach": 4254,
      "Ġornament": 4255,
      "kelet": 4256,
      "Ġblowing": 4257,
      "Ġhut": 4258,
      "Ġsung": 4259,
      "affe": 4260,
      "Ġhotel": 4261,
      "Ġseeing": 4262,
      "Ġcaulifl": 4263,
      "Ġfolder": 4264,
      "Ġvendor": 4265,
      "ccer": 4266,
      "lass": 4267,
      "Ġvideo": 4268,
      "Ġmixer": 4269,
      "pe": 4270,
      "ab": 4271,
      "izes": 4272,
      "bol": 4273,
      "ĠMaria": 4274,
      "Ġthrows": 4275,
      "Ġpirates": 4276,
      "Ġcreated": 4277,
      "orses": 4278,
      "Ġheads": 4279,
      "Ġoil": 4280,
      "Ġkay": 4281,
      "Ġframe": 4282,
      "Ġmosquito": 4283,
      "angu": 4284,
      "Ġcushion": 4285,
      "mm": 4286,
      "Ġsoccer": 4287,
      "Ġfisherman": 4288,
      "ĠBun": 4289,
      "Ġcoal": 4290,
      "ĠBaby": 4291,
      "zzy": 4292,
      "Ġsymbol": 4293,
      "ĠRos": 4294,
      "Ġhorses": 4295,
      "Ġcable": 4296,
      "ceros": 4297,
      "Ġpopped": 4298,
      "Ġlangu": 4299,
      "Ġwipe": 4300,
      "ĠGrace": 4301,
      "Ġpine": 4302,
      "Ġattention": 4303,
      "Ġskelet": 4304,
      "ĠDanny": 4305,
      "Ġbattery": 4306,
      "Ġpowder": 4307,
      "Ġcauliflower": 4308,
      "Ġstud": 4309,
      "Ġlaser": 4310,
      "ef": 4311,
      "render": 4312,
      "Ġforgotten": 4313,
      "Ġweather": 4314,
      "rod": 4315,
      "Ġlives": 4316,
      "Ġmop": 4317,
      "Ġcelebrated": 4318,
      "Ġfishing": 4319,
      "Ġax": 4320,
      "Ġrot": 4321,
      "ĠAnnie": 4322,
      "Ġsince": 4323,
      "Ġtrail": 4324,
      "ĠIÃ¢": 4325,
      "elcome": 4326,
      "Ġmaze": 4327,
      "aws": 4328,
      "ĠGod": 4329,
      "Ġphoto": 4330,
      "ites": 4331,
      "Ġyoga": 4332,
      "Ġsurround": 4333,
      "Ġwaving": 4334,
      "Ġslept": 4335,
      "Ġsneak": 4336,
      "Ġanch": 4337,
      "Ġdear": 4338,
      "unately": 4339,
      "Ġgiraffe": 4340,
      "Ġintrod": 4341,
      "Ġrhinoceros": 4342,
      "Ġpoke": 4343,
      "Ġswamp": 4344,
      "Inside": 4345,
      "Ġflea": 4346,
      "Ġpoints": 4347,
      "ĠJess": 4348,
      "Ġitch": 4349,
      "Ġpoint": 4350,
      "Ġglowing": 4351,
      "ĠitÃ¢": 4352,
      "Ġfireplace": 4353,
      "Ġbreeze": 4354,
      "ney": 4355,
      "lasses": 4356,
      "Your": 4357,
      "Ġsub": 4358,
      "Ġvet": 4359,
      "Ġsunglasses": 4360,
      "Ġkingdom": 4361,
      "Ġmemories": 4362,
      "Ġtutor": 4363,
      "Ġstreng": 4364,
      "Ġtuna": 4365,
      "Ġiron": 4366,
      "Ġreve": 4367,
      "Ġvest": 4368,
      "spap": 4369,
      "ĠTony": 4370,
      "Ġpetals": 4371,
      "Ġfog": 4372,
      "Ġmistakes": 4373,
      "Ġaxe": 4374,
      "Ġcomplain": 4375,
      "Ġbaseball": 4376,
      "Ġdancer": 4377,
      "Ġchickens": 4378,
      "Ġparent": 4379,
      "Ġig": 4380,
      "hero": 4381,
      "Ġnewspap": 4382,
      "Ġstrength": 4383,
      "Ġgreedy": 4384,
      "Ġceiling": 4385,
      "ckey": 4386,
      "Ġsquirrels": 4387,
      "Ġhockey": 4388,
      "ĠUn": 4389,
      "Ġigloo": 4390,
      "Ġsir": 4391,
      "Ġgrin": 4392,
      "Ġanchor": 4393,
      "Ġskeleton": 4394,
      "rosc": 4395,
      "Ġsniffed": 4396,
      "Ġgrocer": 4397,
      "Ġsuperhero": 4398,
      "Ġargue": 4399,
      "Ġnapkin": 4400,
      "chie": 4401,
      "Eventually": 4402,
      "Ġgolden": 4403,
      "ues": 4404,
      "Ġhanging": 4405,
      "Ġtrave": 4406,
      "Ġmusician": 4407,
      "medi": 4408,
      "Ġskirt": 4409,
      "roscope": 4410,
      "Ġstaff": 4411,
      "Ġtemple": 4412,
      "Ġunif": 4413,
      "Ġagree": 4414,
      "Ġsque": 4415,
      "Ġbury": 4416,
      "mediately": 4417,
      "Ġtheater": 4418,
      "Ġdiscu": 4419,
      "Ġuniform": 4420,
      "Ġeaten": 4421,
      "ĠHarry": 4422,
      "Ġslipper": 4423,
      "Ġwelcomed": 4424,
      "Ġseas": 4425,
      "Ġshoulder": 4426,
      "Thanks": 4427,
      "Ġzipper": 4428,
      "Ġquietly": 4429,
      "ssible": 4430,
      "Ġmeeting": 4431,
      "Ġlime": 4432,
      "Ġinvest": 4433,
      "istol": 4434,
      "Ġmicroscope": 4435,
      "Ġpinch": 4436,
      "chair": 4437,
      "Ġflapped": 4438,
      "Ġslippery": 4439,
      "Ġaccepted": 4440,
      "Ġfought": 4441,
      "Ġinvestig": 4442,
      "Ġpistol": 4443,
      "erc": 4444,
      "Ġdoors": 4445,
      "Ġminer": 4446,
      "reek": 4447,
      "Ġradish": 4448,
      "Ġplastic": 4449,
      "Ġthrowing": 4450,
      "Ġcalls": 4451,
      "Ġbouncing": 4452,
      "tress": 4453,
      "Ġmattress": 4454,
      "men": 4455,
      "ĠInstead": 4456,
      "Ġsurrender": 4457,
      "Ġcob": 4458,
      "aces": 4459,
      "Ch": 4460,
      "house": 4461,
      "Ġpear": 4462,
      "Ġcreek": 4463,
      "Ġvroom": 4464,
      "Ġkayak": 4465,
      "ĠMillie": 4466,
      "tain": 4467,
      "Ġmoves": 4468,
      "Ġsticky": 4469,
      "Qu": 4470,
      "Ġlawy": 4471,
      "Wait": 4472,
      "Ġnovel": 4473,
      "alley": 4474,
      "Ġcub": 4475,
      "Ġavocado": 4476,
      "Ġcared": 4477,
      "ĠKate": 4478,
      "Ġsuff": 4479,
      "Ġfreezer": 4480,
      "Ġlotion": 4481,
      "aud": 4482,
      "case": 4483,
      "Little": 4484,
      "ler": 4485,
      "ison": 4486,
      "te": 4487,
      "was": 4488,
      "Ġfauc": 4489,
      "Ġarmchair": 4490,
      "Ġwriting": 4491,
      "inked": 4492,
      "Ġreef": 4493,
      "Ġmakeup": 4494,
      "Ġmystery": 4495,
      "Ġvalley": 4496,
      "web": 4497,
      "Ġtug": 4498,
      "Ġinvestigate": 4499,
      "Ġnews": 4500,
      "Ġsailing": 4501,
      "Ġcherries": 4502,
      "Ġregret": 4503,
      "Ġcrib": 4504,
      "washer": 4505,
      "imney": 4506,
      "Ġexerc": 4507,
      "Ġoyster": 4508,
      "Ġfaucet": 4509,
      "Ġagre": 4510,
      "Ġsplashing": 4511,
      "Ġticket": 4512,
      "Ġcollected": 4513,
      "Ġworth": 4514,
      "Ġchimney": 4515,
      "Ġtoil": 4516,
      "Together": 4517,
      "Ġpresents": 4518,
      "Ġdishwasher": 4519,
      "Ġmagazine": 4520,
      "Ġhappens": 4521,
      "Ġsprayed": 4522,
      "Ġwags": 4523,
      "ÅĵItÃ¢": 4524,
      "Next": 4525,
      "Ġprevent": 4526,
      "Ġcobweb": 4527,
      "Ġquack": 4528,
      "Ġveil": 4529,
      "Ġcastles": 4530,
      "Ġentered": 4531,
      "ĠRu": 4532,
      "Ġtear": 4533,
      "Ġshrugged": 4534,
      "Ġhar": 4535,
      "Ġpassport": 4536,
      "Ġapplaud": 4537,
      "Ġchess": 4538,
      "Ġseparate": 4539,
      "Ġscolded": 4540,
      "lend": 4541,
      "Emma": 4542,
      "ĊĠ": 4543,
      "Ġweigh": 4544,
      "ĠSu": 4545,
      "Ġtoilet": 4546,
      "Ġalarm": 4547,
      "ives": 4548,
      "Ġblankets": 4549,
      "Ġrake": 4550,
      "Ġignored": 4551,
      "Ġtucked": 4552,
      "Ġlawyer": 4553,
      "Ġchoice": 4554,
      "ived": 4555,
      "Ġhopes": 4556,
      "Ġattach": 4557,
      "Ġcoats": 4558,
      "Ġcandles": 4559,
      "Ġfollows": 4560,
      "Ġkisses": 4561,
      "Ġappro": 4562,
      "Ġclassroom": 4563,
      "eve": 4564,
      "ring": 4565,
      "Ġpuddles": 4566,
      "Ġeasily": 4567,
      "Ġapart": 4568,
      "ety": 4569,
      "sit": 4570,
      "Ġdisappear": 4571,
      "Ġbeef": 4572,
      "Ġchairs": 4573,
      "Ġburned": 4574,
      "Ġbother": 4575,
      "Ġletting": 4576,
      "Ġstraight": 4577,
      "ĠNext": 4578,
      "eterin": 4579,
      "eterinarian": 4580,
      "Ġyield": 4581,
      "Ġward": 4582,
      "Ġdressed": 4583,
      "Ġcane": 4584,
      "Ġtrusted": 4585,
      "Ġlanguage": 4586,
      "Ġsizes": 4587,
      "Ġveterinarian": 4588,
      "Ġraz": 4589,
      "Ġteleph": 4590,
      "raged": 4591,
      "Ġcaring": 4592,
      "Ġplanes": 4593,
      "Ġwardrobe": 4594,
      "Ġjewelry": 4595,
      "atched": 4596,
      "Ġblinked": 4597,
      "iday": 4598,
      "Ġshower": 4599,
      "Ġrise": 4600,
      "Ġmissile": 4601,
      "Ġkeeping": 4602,
      "Ġlawn": 4603,
      "Ġrequ": 4604,
      "Ġstable": 4605,
      "Ġcabinet": 4606,
      "Ġcrossed": 4607,
      "Ġoak": 4608,
      "Ġbookshe": 4609,
      "vision": 4610,
      "Ġstro": 4611,
      "Ġtelephone": 4612,
      "Ġnewspaper": 4613,
      "mend": 4614,
      "Ġclaws": 4615,
      "Ġrooms": 4616,
      "Ġsigh": 4617,
      "Ġpuzzles": 4618,
      "Ġaut": 4619,
      "Ġtrade": 4620,
      "Ġincre": 4621,
      "ival": 4622,
      "ĠRosie": 4623,
      "Ġcell": 4624,
      "Ġwhisper": 4625,
      "Ġtornado": 4626,
      "Ġscratch": 4627,
      "una": 4628,
      "anges": 4629,
      "ĠMiss": 4630,
      "Ġbookcase": 4631,
      "Ġinf": 4632,
      "ampoo": 4633,
      "ĠTrue": 4634,
      "Ġblueberries": 4635,
      "Ġsnap": 4636,
      "Ġamazement": 4637,
      "Ġperfu": 4638,
      "ction": 4639,
      "ommend": 4640,
      "Ġsqueezed": 4641,
      "Ġbookshelf": 4642,
      "Because": 4643,
      "Ġrecommend": 4644,
      "Ġopera": 4645,
      "Ġsubway": 4646,
      "Ġpra": 4647,
      "atie": 4648,
      "Ġgym": 4649,
      "Ġdelay": 4650,
      "Ġgrill": 4651,
      "ĠSee": 4652,
      "ĠAb": 4653,
      "Ġrazor": 4654,
      "Ġblouse": 4655,
      "Ġrequest": 4656,
      "ĠHelp": 4657,
      "Ġcrawling": 4658,
      "Ġpur": 4659,
      "Ġpoked": 4660,
      "âĤ¬.": 4661,
      "Ġtelevision": 4662,
      "Ġbill": 4663,
      "Ġhol": 4664,
      "ggy": 4665,
      "Ġfollowing": 4666,
      "omes": 4667,
      "iction": 4668,
      "Ġshampoo": 4669,
      "Ġfile": 4670,
      "rs": 4671,
      "Ġlicks": 4672,
      "Ġspear": 4673,
      "Ġsqueeze": 4674,
      "Ġholiday": 4675,
      "Ġexperience": 4676,
      "Ġlumber": 4677,
      "Ġimprove": 4678,
      "Ġmint": 4679,
      "Ġperfume": 4680,
      "Ġserve": 4681,
      "Ġdemand": 4682,
      "Ġsteam": 4683,
      "Ġcliff": 4684,
      "Ġringing": 4685,
      "Ġcrow": 4686,
      "fortunately": 4687,
      "ictionary": 4688,
      "bbie": 4689,
      "Ġribbon": 4690,
      "Is": 4691,
      "ah": 4692,
      "Ann": 4693,
      "Ġimmediately": 4694,
      "Ġhelper": 4695,
      "Ġmuffin": 4696,
      "ĠJul": 4697,
      "Ġfest": 4698,
      "ĠClara": 4699,
      "Ġgrowled": 4700,
      "Ġisn": 4701,
      "Ġbegged": 4702,
      "Ġdictionary": 4703,
      "Ġmatches": 4704,
      "Ġshrink": 4705,
      "Ġwaste": 4706,
      "Ġblood": 4707,
      "Ġbirdc": 4708,
      "Ġprop": 4709,
      "Ġideas": 4710,
      "Ġwarmth": 4711,
      "ib": 4712,
      "Ġmustache": 4713,
      "Ġsneeze": 4714,
      "ores": 4715,
      "Ġinvite": 4716,
      "hic": 4717,
      "Ġgear": 4718,
      "Ġbirdcage": 4719,
      "Ġvehic": 4720,
      "ups": 4721,
      "Ġfuel": 4722,
      "Ġalright": 4723,
      "ĠJames": 4724,
      "Ġrabbits": 4725,
      "uckily": 4726,
      "asis": 4727,
      "Ġcalend": 4728,
      "Ġweep": 4729,
      "ĠRe": 4730,
      "anny": 4731,
      "Ġyucky": 4732,
      "Ġflutter": 4733,
      "Ġinstr": 4734,
      "Ġfallen": 4735,
      "Ġmarried": 4736,
      "Ġberry": 4737,
      "lier": 4738,
      "Ġrail": 4739,
      "Ġrow": 4740,
      "Ġpastry": 4741,
      "Did": 4742,
      "Ġrefre": 4743,
      "ucture": 4744,
      "Ġworms": 4745,
      "Ġstructure": 4746,
      "Ġlaught": 4747,
      "Ġsurprises": 4748,
      "Ġbravely": 4749,
      "Ġbelow": 4750,
      "Ġcalendar": 4751,
      "Ġoasis": 4752,
      "Ġwandered": 4753,
      "Ġble": 4754,
      "Ġwigg": 4755,
      "Ġkneel": 4756,
      "ising": 4757,
      "Ġdire": 4758,
      "Ġunderstanding": 4759,
      "Ġhurting": 4760,
      "Ġlaughter": 4761,
      "omeday": 4762,
      "Ġdrain": 4763,
      "Ġpages": 4764,
      "Ok": 4765,
      "Ġhearts": 4766,
      "Ġenter": 4767,
      "ĠIs": 4768,
      "Ġairpl": 4769,
      "inky": 4770,
      "Ġitem": 4771,
      "omob": 4772,
      "Ġharb": 4773,
      "Ġreaches": 4774,
      "Ġapron": 4775,
      "asp": 4776,
      "Ġsafety": 4777,
      "Ġfloat": 4778,
      "Ġcrash": 4779,
      "Ġautomob": 4780,
      "Ġbathe": 4781,
      "Ġburied": 4782,
      "Today": 4783,
      "Ġjunk": 4784,
      "ÅĵNo": 4785,
      "Ġbuckle": 4786,
      "Ġadmir": 4787,
      "ĠFreddy": 4788,
      "Ġroot": 4789,
      "Ġcaptain": 4790,
      "Ġstrawberries": 4791,
      "Ġmyself": 4792,
      "achel": 4793,
      "Ġrelaxed": 4794,
      "Ġsandcastle": 4795,
      "oral": 4796,
      "Ġignore": 4797,
      "Ġskills": 4798,
      "Welcome": 4799,
      "Ġplates": 4800,
      "ĠKing": 4801,
      "'ve": 4802,
      "Ġwhip": 4803,
      "Ġspade": 4804,
      "ĠFo": 4805,
      "Ġmoments": 4806,
      "Ġreverse": 4807,
      "htray": 4808,
      "ĠWho": 4809,
      "icing": 4810,
      "Ġquiz": 4811,
      "Ġashtray": 4812,
      "Ġfestival": 4813,
      "Ġbeamed": 4814,
      "'.": 4815,
      "Ġsnapped": 4816,
      "ari": 4817,
      "riger": 4818,
      "Ġsomeday": 4819,
      "cakes": 4820,
      "Ġrefriger": 4821,
      "Ġraise": 4822,
      "Will": 4823,
      "Ġreceived": 4824,
      "Yuck": 4825,
      "Ġrefrigerator": 4826,
      "Ġearlier": 4827,
      "Ġtong": 4828,
      "ĠMaggie": 4829,
      "Ġlic": 4830,
      "Ġweap": 4831,
      "Ġvac": 4832,
      "Ġteaching": 4833,
      "Ġmass": 4834,
      "Ġharbor": 4835,
      "ĠSnowy": 4836,
      "ĠPeople": 4837,
      "Ġmodel": 4838,
      "Ġsparkling": 4839,
      "Ġspots": 4840,
      "aped": 4841,
      "Ġinsisted": 4842,
      "Ġsaving": 4843,
      "Ġvanished": 4844,
      "Ġsocks": 4845,
      "Ġbumped": 4846,
      "ĠIts": 4847,
      "Ġthumb": 4848,
      "anna": 4849,
      "Ġdried": 4850,
      "Ġsupply": 4851,
      "ĠTina": 4852,
      "ission": 4853,
      "Ġblackboard": 4854,
      "igail": 4855,
      "Ġprepare": 4856,
      "Ġjail": 4857,
      "Ġjewels": 4858,
      "Ġspending": 4859,
      "Ġbalan": 4860,
      "ĠBefore": 4861,
      "Ġscattered": 4862,
      "xy": 4863,
      "Ġtoes": 4864,
      "Ġscooped": 4865,
      "Ġsettled": 4866,
      "ĠMay": 4867,
      "Ġpermission": 4868,
      "Ġsparkle": 4869,
      "Ġknown": 4870,
      "ctly": 4871,
      "Ġbreathe": 4872,
      "Ġboot": 4873,
      "Ġyawned": 4874,
      "Ġres": 4875,
      "amber": 4876,
      "Ġachie": 4877,
      "With": 4878,
      "Ġdestroyed": 4879,
      "Ġbathrobe": 4880,
      "Ġtease": 4881,
      "Ġremain": 4882,
      "Ġhardly": 4883,
      "Ġencouraged": 4884,
      "Ġreplace": 4885,
      "Ġwaffle": 4886,
      "antly": 4887,
      "Ġpride": 4888,
      "Ġlemonade": 4889,
      "Ġdare": 4890,
      "Ġhanger": 4891,
      "Ġsits": 4892,
      "Ġpulling": 4893,
      "ĠHave": 4894,
      "Ġdecorations": 4895,
      "sters": 4896,
      "ops": 4897,
      "Ġremove": 4898,
      "Ġcuddled": 4899,
      "Ġhate": 4900,
      "Ġdaisy": 4901,
      "Ġlicense": 4902,
      "avid": 4903,
      "Ġbeans": 4904,
      "Ġsimp": 4905,
      "Ġport": 4906,
      "Ġrespons": 4907,
      "izard": 4908,
      "Ġpraised": 4909,
      "sing": 4910,
      "reat": 4911,
      "Ġchirping": 4912,
      "Mandy": 4913,
      "Ġhits": 4914,
      "ents": 4915,
      "Ġequ": 4916,
      "Ġfastest": 4917,
      "Ġsuffer": 4918,
      "xture": 4919,
      "Ġbuzzing": 4920,
      "Ġpatiently": 4921,
      "Ġdresses": 4922,
      "Ġmention": 4923,
      "Ġbleed": 4924,
      "sity": 4925,
      "Ġrhy": 4926,
      "Ġautomobile": 4927,
      "nies": 4928,
      "Ġappreciate": 4929,
      "Ġpoppy": 4930,
      "Ġdestination": 4931,
      "Ġtaller": 4932,
      "Ġmall": 4933,
      "osed": 4934,
      "Ġhomes": 4935,
      "Ġnation": 4936,
      "ium": 4937,
      "Ġdigg": 4938,
      "Ġflav": 4939,
      "Ġclimbs": 4940,
      "Ġguy": 4941,
      "Ġwashing": 4942,
      "Ġpalm": 4943,
      "Ġglo": 4944,
      "Ġshot": 4945,
      "Ġlabel": 4946,
      "Ġbelieved": 4947,
      "Ġdigging": 4948,
      "Ġapproached": 4949,
      "Ġhesit": 4950,
      "fied": 4951,
      "Mmm": 4952,
      "ĠOllie": 4953,
      "Ġnone": 4954,
      "Ġtore": 4955,
      "Ġdeeper": 4956,
      "Ġwine": 4957,
      "All": 4958,
      "Ġinfant": 4959,
      "ude": 4960,
      "Ġrestore": 4961,
      "Ġscore": 4962,
      "Ġhers": 4963,
      "rm": 4964,
      "Ġmitten": 4965,
      "Ġchamber": 4966,
      "Ġsausage": 4967,
      "Ġstruggling": 4968,
      "Ġheat": 4969,
      "Ġdifferen": 4970,
      "Ġtongue": 4971,
      "Ġhills": 4972,
      "Ġhurric": 4973,
      "Ġpunish": 4974,
      "Ġpillows": 4975,
      "Ġbillboard": 4976,
      "Ġsneezed": 4977,
      "Ġsport": 4978,
      "ĠEach": 4979,
      "Ġwizard": 4980,
      "Ġupstairs": 4981,
      "Ġthrilled": 4982,
      "Ġprovide": 4983,
      "Ġbrain": 4984,
      "Ġawe": 4985,
      "Ġdiscuss": 4986,
      "Ġpanic": 4987,
      "Ġwarning": 4988,
      "Ġtwisted": 4989,
      "Ġglowed": 4990,
      "Ġuniverse": 4991,
      "Ġfiref": 4992,
      "ĠCo": 4993,
      "Ġtherm": 4994,
      "Ġvacation": 4995,
      "Ġworse": 4996,
      "Ġcrunch": 4997,
      "Ġpoison": 4998,
      "Ġshed": 4999,
      "Ġsolved": 5000,
      "Ġparts": 5001,
      "osity": 5002,
      "bey": 5003,
      "Ġevent": 5004,
      "Ġsetting": 5005,
      "allen": 5006,
      "Ġtour": 5007,
      "Ġremained": 5008,
      "Ġairplane": 5009,
      "Ġhurricane": 5010,
      "Ġthermomet": 5011,
      "Ġplays": 5012,
      "Ġexamine": 5013,
      "Ġsparkles": 5014,
      "Ġshooting": 5015,
      "Ġinvit": 5016,
      "Ġneighborhood": 5017,
      "Ġsty": 5018,
      "Ġchores": 5019,
      "Ġoranges": 5020,
      "Ġfloated": 5021,
      "Ġranch": 5022,
      "Ġchallen": 5023,
      "Emily": 5024,
      "thm": 5025,
      "ĠEveryday": 5026,
      "Ġweeks": 5027,
      "Ġleak": 5028,
      "Sammy": 5029,
      "Ġuniversity": 5030,
      "Ġpaints": 5031,
      "Ġthermometer": 5032,
      "These": 5033,
      "Ġbites": 5034,
      "Ġrepeat": 5035,
      "ĠBetsy": 5036,
      "Ġbang": 5037,
      "adium": 5038,
      "Ġfloating": 5039,
      "Ġfixing": 5040,
      "ging": 5041,
      "Ġmeasured": 5042,
      "Ġstadium": 5043,
      "Ġgrinned": 5044,
      "!'": 5045,
      "do": 5046,
      "Ġduring": 5047,
      "!\",": 5048,
      "Ġsurrounded": 5049,
      "Ġsupposed": 5050,
      "aspoon": 5051,
      "Ġconf": 5052,
      "Ġrhythm": 5053,
      "Sh": 5054,
      "Ġmassage": 5055,
      "Ġbrings": 5056,
      "Ġpaused": 5057,
      "Ġcherry": 5058,
      "Ġgifts": 5059,
      "Ġfut": 5060,
      "ĠLiz": 5061,
      "Ġsprinkles": 5062,
      "Ġfasc": 5063,
      "Fl": 5064,
      "Ġfuture": 5065,
      "Ġmemory": 5066,
      "ÅĵIÃ¢": 5067,
      "Ġteaspoon": 5068,
      "Ġgrey": 5069,
      "rise": 5070,
      "Ġcollection": 5071,
      "Ġsigns": 5072,
      "Ġmarbles": 5073,
      "bbles": 5074,
      "Ġjazz": 5075,
      "Would": 5076,
      "Not": 5077,
      "Ġstomach": 5078,
      "ĠBuzz": 5079,
      "emember": 5080,
      "Ġgust": 5081,
      "Ġwisdom": 5082,
      "Ġactually": 5083,
      "Ġflood": 5084,
      "Ġdiscovery": 5085,
      "Ġinclud": 5086,
      "Ġsew": 5087,
      "Ġvehicle": 5088,
      "Ġtide": 5089,
      "Ġlily": 5090,
      "Ġgirls": 5091,
      "Ġsunrise": 5092,
      "ĠGood": 5093,
      "ishing": 5094,
      "vet": 5095,
      "ÅĵThatÃ¢": 5096,
      "Ġmeowed": 5097,
      "ls": 5098,
      "Ġelephants": 5099,
      "Lisa": 5100,
      "Ġurge": 5101,
      "Ġexercise": 5102,
      "Ġmailman": 5103,
      "Ġlugg": 5104,
      "umble": 5105,
      "Peter": 5106,
      "Ġdecision": 5107,
      "Ġchewed": 5108,
      "Ġrush": 5109,
      "Ġweapon": 5110,
      "Ġstrang": 5111,
      "Ġobserve": 5112,
      "ĠRuby": 5113,
      "Ġluggage": 5114,
      "Ġunite": 5115,
      "Ġcartoons": 5116,
      "ero": 5117,
      "Ġsore": 5118,
      "Ġfascin": 5119,
      "ĠV": 5120,
      "Ġtomatoes": 5121,
      "iers": 5122,
      "Ġscur": 5123,
      "Ġpossible": 5124,
      "Ġtoe": 5125,
      "ĠLater": 5126,
      "allow": 5127,
      "cles": 5128,
      "Ġsunlight": 5129,
      "ities": 5130,
      "Ġfolded": 5131,
      "ĠMe": 5132,
      "Ġcurled": 5133,
      "Ġchirped": 5134,
      "Ġrust": 5135,
      "ĠRachel": 5136,
      "Ġmelted": 5137,
      "ĠJoy": 5138,
      "Ġspill": 5139,
      "Jake": 5140,
      "Ġcakes": 5141,
      "uing": 5142,
      "Ġsip": 5143,
      "Ġcollecting": 5144,
      "Ġx": 5145,
      "Ġgrape": 5146,
      "son": 5147,
      "Ġmineral": 5148,
      "eed": 5149,
      "Ġbrus": 5150,
      "Ġdifference": 5151,
      "Ġproblems": 5152,
      "Ġbak": 5153,
      "Ġtracks": 5154,
      "Ġjogging": 5155,
      "Ġwherever": 5156,
      "Ready": 5157,
      "Ġmountains": 5158,
      "ĠSteve": 5159,
      "ipment": 5160,
      "Ġbes": 5161,
      "Ġsliding": 5162,
      "eration": 5163,
      "ĠSpike": 5164,
      "Ġmanage": 5165,
      "Mark": 5166,
      "Ġequipment": 5167,
      "etch": 5168,
      "Ġlaid": 5169,
      "Ġlick": 5170,
      "Ġadmiring": 5171,
      "Ġwatered": 5172,
      "cious": 5173,
      "Ġsatis": 5174,
      "Ġcontain": 5175,
      "Ġbricks": 5176,
      "oved": 5177,
      "Ġtwigs": 5178,
      "ĠSomeone": 5179,
      "rr": 5180,
      "Ġpatterns": 5181,
      "Ġkindly": 5182,
      "Ġpetted": 5183,
      "Ġskipping": 5184,
      "Ġpotatoes": 5185,
      "Ġseats": 5186,
      "bers": 5187,
      "Ex": 5188,
      "Ġsoldiers": 5189,
      "ĠPoppy": 5190,
      "ĠMilly": 5191,
      "Ġgloves": 5192,
      "Ġspaces": 5193,
      "zag": 5194,
      "joyed": 5195,
      "unday": 5196,
      "Ġreceive": 5197,
      "Ġkeeper": 5198,
      "Ġcopper": 5199,
      "Ġemer": 5200,
      "Ġslice": 5201,
      "Ġlets": 5202,
      "Ġgain": 5203,
      "ddy": 5204,
      "Ġcontinue": 5205,
      "Ġordered": 5206,
      "Ġstrangers": 5207,
      "walk": 5208,
      "Ġoverjoyed": 5209,
      "Ġwatches": 5210,
      "Ġgotten": 5211,
      "Ġpigs": 5212,
      "ĠSunday": 5213,
      "omas": 5214,
      "Ġzipped": 5215,
      "mother": 5216,
      "Le": 5217,
      "Ġlands": 5218,
      "Ġwhistling": 5219,
      "Ġgaz": 5220,
      "Ġbeside": 5221,
      "ÅĵThank": 5222,
      "ĠPenny": 5223,
      "ĠCat": 5224,
      "Ġsafari": 5225,
      "Ġbeg": 5226,
      "Ġprayed": 5227,
      "Ġpeered": 5228,
      "Ġnetwork": 5229,
      "bbled": 5230,
      "Ġspit": 5231,
      "Ġeff": 5232,
      "Ġinvitation": 5233,
      "Ġmarching": 5234,
      "Ġours": 5235,
      "ases": 5236,
      "Ġglitter": 5237,
      "Ġwooden": 5238,
      "ĠKatie": 5239,
      "Ġearthqu": 5240,
      "Ġsidewalk": 5241,
      "Ġeagle": 5242,
      "igzag": 5243,
      "Ġdoggy": 5244,
      "Ġdrinks": 5245,
      "Ġgrocery": 5246,
      "irp": 5247,
      "Ġweight": 5248,
      "Ġnavy": 5249,
      "Ġacorns": 5250,
      "Ġattached": 5251,
      "Ġraised": 5252,
      "Ġdisagreed": 5253,
      "loe": 5254,
      "Ġweren": 5255,
      "Yum": 5256,
      "ĠLetÃ¢": 5257,
      "Ġbeat": 5258,
      "Ġcompany": 5259,
      "Ouch": 5260,
      "Ġmister": 5261,
      "Ġburning": 5262,
      "fy": 5263,
      "Ġonwards": 5264,
      "hest": 5265,
      "\",": 5266,
      "Ġwre": 5267,
      "ĠSpark": 5268,
      "Ġhappiest": 5269,
      "Moral": 5270,
      "Ġracing": 5271,
      "Ġbrid": 5272,
      "Before": 5273,
      "Ġcrashed": 5274,
      "Ġspoons": 5275,
      "Ġfed": 5276,
      "Ġcrunchy": 5277,
      "Ġpeanuts": 5278,
      "ĠRa": 5279,
      "Ġwhistled": 5280,
      "ĠSharing": 5281,
      "Ġprice": 5282,
      "seek": 5283,
      "Ġmeow": 5284,
      "Ġhurried": 5285,
      "Ġhist": 5286,
      "Ġofficer": 5287,
      "ĠSad": 5288,
      "Ġbrick": 5289,
      "ĠChr": 5290,
      "Ġaccom": 5291,
      "Ġtremb": 5292,
      "Ġrefreshed": 5293,
      "Ġpies": 5294,
      "Ġremem": 5295,
      "Ġflap": 5296,
      "Ġworks": 5297,
      "Ġclearing": 5298,
      "nie": 5299,
      "Ġoperation": 5300,
      "Ġprepared": 5301,
      "Ġbowed": 5302,
      "Ġscratched": 5303,
      "Ġremembers": 5304,
      "Ġhistory": 5305,
      "Ġexa": 5306,
      "ĠFrank": 5307,
      "aded": 5308,
      "Ġlips": 5309,
      "amb": 5310,
      "Really": 5311,
      "Ġfireworks": 5312,
      "Ġprune": 5313,
      "ÅĵWe": 5314,
      "Ġescaped": 5315,
      "Ġdinosaurs": 5316,
      "Ġmenu": 5317,
      "ĠAbigail": 5318,
      "Ġbridges": 5319,
      "Ġtalent": 5320,
      "Ġplanted": 5321,
      "amie": 5322,
      "Ġbuildings": 5323,
      "Ġrevealed": 5324,
      "ĠMat": 5325,
      "Ġeasier": 5326,
      "Ġbye": 5327,
      "Ġturning": 5328,
      "Ġcomfy": 5329,
      "Ġscreams": 5330,
      "Ġolive": 5331,
      "Ġbrand": 5332,
      "ĠZoe": 5333,
      "ĠQu": 5334,
      "Ġhated": 5335,
      "Ġchat": 5336,
      "Ġselling": 5337,
      "ĠLuna": 5338,
      "Ġsnowball": 5339,
      "die": 5340,
      "Ġrecognized": 5341,
      "Ġwarn": 5342,
      "Ġaccompl": 5343,
      "Ġcrept": 5344,
      "Jen": 5345,
      "Ġprecious": 5346,
      "ĠFro": 5347,
      "Ġlandsc": 5348,
      "omething": 5349,
      "ĠNot": 5350,
      "ĠDavid": 5351,
      "Ġstrip": 5352,
      "Ġmuddy": 5353,
      "Ġpadd": 5354,
      "Ġwid": 5355,
      "Ġdrinking": 5356,
      "Ġsings": 5357,
      "xygen": 5358,
      "Ġbeds": 5359,
      "Ġpupp": 5360,
      "Susie": 5361,
      "ecture": 5362,
      "Ġsettle": 5363,
      "Ġearthquake": 5364,
      "Ġsimple": 5365,
      "Ġeffort": 5366,
      "cc": 5367,
      "ĠRemy": 5368,
      "Ġreminder": 5369,
      "Ġspaceship": 5370,
      "Ġmeasuring": 5371,
      "Ġslip": 5372,
      "Ġperched": 5373,
      "Ġlecture": 5374,
      "Ġbones": 5375,
      "Ġserved": 5376,
      "Ġappear": 5377,
      "Ġwonders": 5378,
      "Ġshadows": 5379,
      "Ġwaits": 5380,
      "Ġvoices": 5381,
      "ÅĵCan": 5382,
      "Ġcuddle": 5383,
      "Ġeveryday": 5384,
      "Ġpedal": 5385,
      "Ġpitch": 5386,
      "Ġcomforted": 5387,
      "Ġagreement": 5388,
      "Ġresponsible": 5389,
      "Ġcircus": 5390,
      "Ġrained": 5391,
      "Ġvel": 5392,
      "Ġobey": 5393,
      "ffic": 5394,
      "Ġvict": 5395,
      "Ġtip": 5396,
      "Ġsoared": 5397,
      "Ġallow": 5398,
      "Ġanytime": 5399,
      "Ġtrapped": 5400,
      "Ġcal": 5401,
      "Ġwhatever": 5402,
      "Ġzigzag": 5403,
      "Ġtastes": 5404,
      "Ġapologize": 5405,
      "Ġlandscape": 5406,
      "Ġcutting": 5407,
      "Ġsucceeded": 5408,
      "Ġshopping": 5409,
      "Ġrang": 5410,
      "Ġpets": 5411,
      "Ġsecrets": 5412,
      "Ġvillag": 5413,
      "Ġfash": 5414,
      "Ġvelvet": 5415,
      "Ġprinter": 5416,
      "Ġdisturbed": 5417,
      "Ġwaist": 5418,
      "Ġitems": 5419,
      "Ġswims": 5420,
      "Ġbun": 5421,
      "Ġtraffic": 5422,
      "Ġpracticing": 5423,
      "Ġsteel": 5424,
      "Ġbringing": 5425,
      "Ġoats": 5426,
      "Ġexactly": 5427,
      "Ġsisters": 5428,
      "Ġrested": 5429,
      "Ġvisiting": 5430,
      "Ġscoop": 5431,
      "Ġactiv": 5432,
      "Luckily": 5433,
      "Ġcostumes": 5434,
      "annah": 5435,
      "Ġanswers": 5436,
      "izing": 5437,
      "ĠPr": 5438,
      "Ġolives": 5439,
      "ien": 5440,
      "mble": 5441,
      "ĠJe": 5442,
      "Ġbrushed": 5443,
      "ĠSunny": 5444,
      "Ġstyle": 5445,
      "Ġmouths": 5446,
      "Ġsoak": 5447,
      "laire": 5448,
      "Ġcuriosity": 5449,
      "ishes": 5450,
      "Ġoutdo": 5451,
      "neath": 5452,
      "Ġbreaking": 5453,
      "Ġfashion": 5454,
      "ĠBeth": 5455,
      "Ġrele": 5456,
      "Ġowned": 5457,
      "Ġladyb": 5458,
      "Ġencourage": 5459,
      "ĠNut": 5460,
      "ÅĵDon": 5461,
      "Ro": 5462,
      "Ġknelt": 5463,
      "Ġfascinated": 5464,
      "Ġleather": 5465,
      "mare": 5466,
      "Ġimage": 5467,
      "iggy": 5468,
      "Ġvillagers": 5469,
      "oming": 5470,
      "Ġnails": 5471,
      "Ġbeneath": 5472,
      "icorn": 5473,
      "Ġunderground": 5474,
      "Ġwaffles": 5475,
      "Tweet": 5476,
      "Ġunicorn": 5477,
      "Ġsadness": 5478,
      "enty": 5479,
      "terday": 5480,
      "Ġunlocked": 5481,
      "inda": 5482,
      "Ġdied": 5483,
      "Ġrecognize": 5484,
      "ĠItÃ¢": 5485,
      "Ġdownstairs": 5486,
      "Ġcreation": 5487,
      "Ġcatching": 5488,
      "ĠChirp": 5489,
      "ĠTw": 5490,
      "Ġgrandmother": 5491,
      "Ġoxygen": 5492,
      "isten": 5493,
      "Ġmonsters": 5494,
      "Ġtremble": 5495,
      "Ġchef": 5496,
      "Ġeats": 5497,
      "ĠThese": 5498,
      "Ġpupil": 5499,
      "ik": 5500,
      "Ġwanting": 5501,
      "Ġnightmare": 5502,
      "Ġjogged": 5503,
      "Ġcape": 5504,
      "Ġstripes": 5505,
      "Ġdoctors": 5506,
      "Ġsoaring": 5507,
      "Ġblueberry": 5508,
      "ley": 5509,
      "ĠHowever": 5510,
      "Ġstruggled": 5511,
      "Ġlemons": 5512,
      "Ġwondering": 5513,
      "Ġbleeding": 5514,
      "Ġpunished": 5515,
      "Ġgained": 5516,
      "Ġfamil": 5517,
      "ayla": 5518,
      "dam": 5519,
      "Ġfetch": 5520,
      "Happy": 5521,
      "ĠSomething": 5522,
      "Ġexamined": 5523,
      "Ġnicer": 5524,
      "Ġguessed": 5525,
      "Ġplanned": 5526,
      "Ġdrag": 5527,
      "Ġcaut": 5528,
      "Ġsitu": 5529,
      "Ġmachines": 5530,
      "Ġmission": 5531,
      "ĠFirst": 5532,
      "Ġstealing": 5533,
      "First": 5534,
      "Ġargued": 5535,
      "uke": 5536,
      "Ġarea": 5537,
      "Ġcomple": 5538,
      "Ġpiles": 5539,
      "Ġsi": 5540,
      "Ġherbs": 5541,
      "Ġfreeze": 5542,
      "Ġintroduc": 5543,
      "Ġstirring": 5544,
      "ĠSuzy": 5545,
      "ĠJan": 5546,
      "ĠUncle": 5547,
      "Ġripped": 5548,
      "Ġsix": 5549,
      "Ġchallenge": 5550,
      "Sometimes": 5551,
      "Ġtugged": 5552,
      "Ġstudied": 5553,
      "Ġfiremen": 5554,
      "ĠOw": 5555,
      "Ġbend": 5556,
      "Ġbare": 5557,
      "Ġwagging": 5558,
      "Ġzooming": 5559,
      "Ġaccidents": 5560,
      "Or": 5561,
      "Ġvictory": 5562,
      "Ġsatisfied": 5563,
      "Ġwreck": 5564,
      "Ġinstruct": 5565,
      "Ġproperly": 5566,
      "agull": 5567,
      "Ġkeys": 5568,
      "ulu": 5569,
      "Ġwinning": 5570,
      "Ġshivering": 5571,
      "looking": 5572,
      "Ġbunnies": 5573,
      "Ġincrease": 5574,
      "ĠKe": 5575,
      "ux": 5576,
      "ding": 5577,
      "Ġgathering": 5578,
      "Ġtune": 5579,
      "Ġmice": 5580,
      "Ġexit": 5581,
      "Ġfirefight": 5582,
      "Un": 5583,
      "Ġoutdoors": 5584,
      "Ġwinner": 5585,
      "Ġtwirling": 5586,
      "Ġslapped": 5587,
      "Ġloaded": 5588,
      "Ġteasing": 5589,
      "Ġpeel": 5590,
      "Ġdecorated": 5591,
      "uxu": 5592,
      "Ġdeser": 5593,
      "Ġsupplies": 5594,
      "Ġyelling": 5595,
      "Ġneighbourhood": 5596,
      "Ġseagull": 5597,
      "Ġunderneath": 5598,
      "Ġpermit": 5599,
      "Ġsights": 5600,
      "Ġtickets": 5601,
      "usan": 5602,
      "Johnny": 5603,
      "Ġann": 5604,
      "Ġpancakes": 5605,
      "oh": 5606,
      "Ġbegin": 5607,
      "Ġburrow": 5608,
      "Ġpearl": 5609,
      "Ġrides": 5610,
      "Ġsiren": 5611,
      "Ġpeaches": 5612,
      "Ġmixing": 5613,
      "Ġreleased": 5614,
      "Ġdraws": 5615,
      "Ġweighed": 5616,
      "aky": 5617,
      "ena": 5618,
      "ĠJosh": 5619,
      "Fluffy": 5620,
      "Ġsneaked": 5621,
      "ica": 5622,
      "ĠFloppy": 5623,
      "indy": 5624,
      ".'": 5625,
      "Ġconfident": 5626,
      "Ġrealize": 5627,
      "Ġinstructions": 5628,
      "ĠJulie": 5629,
      "Ġspiders": 5630,
      "ĠOl": 5631,
      "Ġintroduce": 5632,
      "Ġluxu": 5633,
      "Ġdam": 5634,
      "Ġmuffins": 5635,
      "shing": 5636,
      "Ġcontro": 5637,
      "ĠletÃ¢": 5638,
      "Ġpinched": 5639,
      "Ġbudge": 5640,
      "Ġsolut": 5641,
      "ĠCoco": 5642,
      "ĠLucky": 5643,
      "Ġzero": 5644,
      "Ġcompetition": 5645,
      "ĠNutty": 5646,
      "Ġprinted": 5647,
      "Ġstudying": 5648,
      "Ġloving": 5649,
      "Ġbeha": 5650,
      "Ġinch": 5651,
      "Ġpockets": 5652,
      "Ġbaked": 5653,
      "ales": 5654,
      "ĠRabbit": 5655,
      "Ġstruck": 5656,
      "ĠThomas": 5657,
      "ĠDid": 5658,
      "ÅĵLook": 5659,
      "Ġshoulders": 5660,
      "Ġbunch": 5661,
      "Ġopin": 5662,
      "Ġlines": 5663,
      "Ġfrosting": 5664,
      "Ġrelease": 5665,
      "Goodbye": 5666,
      "Ġdecides": 5667,
      "Ġgiggling": 5668,
      "ĠPip": 5669,
      "Ġbroom": 5670,
      "ĠLike": 5671,
      "Ġourselves": 5672,
      "ĠYes": 5673,
      "Ġweb": 5674,
      "Ġpastel": 5675,
      "lled": 5676,
      "Ġstamps": 5677,
      "Ġcones": 5678,
      "nes": 5679,
      "Ġemergen": 5680,
      "ÅĵHello": 5681,
      "Ġstair": 5682,
      "Ġstitch": 5683,
      "bbing": 5684,
      "ĠStop": 5685,
      "ĠAm": 5686,
      "Ġprunes": 5687,
      "Ġladybug": 5688,
      "Ġsides": 5689,
      "ĠBig": 5690,
      "oed": 5691,
      "Ġgrant": 5692,
      "Ġscurried": 5693,
      "Ġstrings": 5694,
      "âĤ¬âĢĿ": 5695,
      "Ġtim": 5696,
      "ais": 5697,
      "Ġmarks": 5698,
      "Ġruler": 5699,
      "Ġpears": 5700,
      "gers": 5701,
      "ednes": 5702,
      "ednesday": 5703,
      "Ġrepeated": 5704,
      "Ġdrift": 5705,
      "Ġkeeps": 5706,
      "Ġago": 5707,
      "Ġclaps": 5708,
      "Ġpoking": 5709,
      "len": 5710,
      "anta": 5711,
      "ÅĵThis": 5712,
      "Ye": 5713,
      "ays": 5714,
      "Ġcrowd": 5715,
      "ĠHop": 5716,
      "Ġruin": 5717,
      "Ġprints": 5718,
      "Mr": 5719,
      "kins": 5720,
      "low": 5721,
      "Ġbrushes": 5722,
      "Ġkicking": 5723,
      "Ġstretching": 5724,
      "Ġdemanded": 5725,
      "Ġsting": 5726,
      "Ġneighbors": 5727,
      "Ġmentioned": 5728,
      "ira": 5729,
      "Ġmast": 5730,
      "owers": 5731,
      "ĠChloe": 5732,
      "ody": 5733,
      "ĠWednesday": 5734,
      "Ġtouching": 5735,
      "Ġtonight": 5736,
      "Ġprotected": 5737,
      "ĠChirpy": 5738,
      "Ġwrites": 5739,
      "Ġsweeties": 5740,
      "ĠTiny": 5741,
      "Cl": 5742,
      "ĠRob": 5743,
      "ĠAn": 5744,
      "Ġgoodnight": 5745,
      "Lola": 5746,
      "uesday": 5747,
      "Ġyouth": 5748,
      "Ġbuckets": 5749,
      "Ġribbons": 5750,
      "va": 5751,
      "jam": 5752,
      "uctantly": 5753,
      "tiest": 5754,
      "ashed": 5755,
      "Ġprettiest": 5756,
      "Ġforgi": 5757,
      "Ġvent": 5758,
      "Ġparked": 5759,
      "icky": 5760,
      "exp": 5761,
      "Ġproject": 5762,
      "Ġcamping": 5763,
      "Ġsoaked": 5764,
      "zie": 5765,
      "Ġbarely": 5766,
      "Ġhorns": 5767,
      "Ġbouncy": 5768,
      "icked": 5769,
      "bies": 5770,
      "ĠTuesday": 5771,
      "riage": 5772,
      "hins": 5773,
      "ĠGr": 5774,
      "Ġdiscovering": 5775,
      "ĠBir": 5776,
      "Ah": 5777,
      "ÅĵDonÃ¢": 5778,
      "Ġeast": 5779,
      "ĠSure": 5780,
      "Ġtwinkling": 5781,
      "Ġresult": 5782,
      "Ġexpect": 5783,
      "ĠCarl": 5784,
      "Ġsurface": 5785,
      "Ġsorting": 5786,
      "Ġdent": 5787,
      "Ġstole": 5788,
      "ÅĵWhy": 5789,
      "Ġwest": 5790,
      "Ġinterest": 5791,
      "Ġvowed": 5792,
      "Ġtexture": 5793,
      "Ġgazed": 5794,
      "Ġpurred": 5795,
      "Ġsteep": 5796,
      "Ġguys": 5797,
      "Ġbabies": 5798,
      "Ġshock": 5799,
      "Ġbeard": 5800,
      "Ġmovies": 5801,
      "Ġcautious": 5802,
      "expected": 5803,
      "ĠBubbles": 5804,
      "zen": 5805,
      "ĠJamie": 5806,
      "Ġpowers": 5807,
      "Ġapplauded": 5808,
      "Ġsilence": 5809,
      "thank": 5810,
      "Ġpebbles": 5811,
      "Ġentire": 5812,
      "Ġ1": 5813,
      "Ġloose": 5814,
      "Ġcontrol": 5815,
      "Ġtickle": 5816,
      "Ġguns": 5817,
      "Ġurged": 5818,
      "Ġdragons": 5819,
      "Ġacted": 5820,
      "Ġdragged": 5821,
      "Ġunexpected": 5822,
      "Ġluxury": 5823,
      "edding": 5824,
      "Ġcatches": 5825,
      "Uh": 5826,
      "ason": 5827,
      "ern": 5828,
      "Ġmittens": 5829,
      "Ġmuscles": 5830,
      "ĠBetty": 5831,
      "Ġchewing": 5832,
      "Ġrocking": 5833,
      "Ġflat": 5834,
      "Ġfab": 5835,
      "Ġdolphins": 5836,
      "Ġcompleted": 5837,
      "Ġfabric": 5838,
      "Ġcurtains": 5839,
      "Ella": 5840,
      "Ġemergency": 5841,
      "ĠNina": 5842,
      "Ġblink": 5843,
      "Ġintroduced": 5844,
      "une": 5845,
      "Ġdirection": 5846,
      "uly": 5847,
      "Ġchips": 5848,
      "Ġhonk": 5849,
      "Ġseason": 5850,
      "Ġpatience": 5851,
      "Ġstrike": 5852,
      "Ġimportance": 5853,
      "Bella": 5854,
      "eezing": 5855,
      "Mar": 5856,
      "Ġreluctantly": 5857,
      "Ġbank": 5858,
      "Ġeight": 5859,
      "Ġslim": 5860,
      "usted": 5861,
      "Ġfigured": 5862,
      "Ġhighest": 5863,
      "Ġshivered": 5864,
      "Grandpa": 5865,
      "Remember": 5866,
      "Ġfrozen": 5867,
      "Ġlibrarian": 5868,
      "Ġsolution": 5869,
      "Ġcontest": 5870,
      "Ġrocked": 5871,
      "Ġachieve": 5872,
      "ĠAnne": 5873,
      "Ġscreaming": 5874,
      "ĠZoom": 5875,
      "Ġchases": 5876,
      "Ġreplac": 5877,
      "Ġpouring": 5878,
      "Ġshelves": 5879,
      "Ġwound": 5880,
      "Ġtheirs": 5881,
      "Ġcrumb": 5882,
      "Ġrubbing": 5883,
      "esome": 5884,
      "Ġti": 5885,
      "Ġhugging": 5886,
      "Ġdrives": 5887,
      "Ġstaring": 5888,
      "Ġsorted": 5889,
      "Ġsnail": 5890,
      "Ġroaring": 5891,
      "ÅĵOh": 5892,
      "Rex": 5893,
      "ĠCar": 5894,
      "ledge": 5895,
      "Ġinclude": 5896,
      "Ġplanets": 5897,
      "Mike": 5898,
      "ĠSanta": 5899,
      "Ġmater": 5900,
      "Ġmateri": 5901,
      "Ġsafer": 5902,
      "Ġpoliceman": 5903,
      "fit": 5904,
      "Ġcurly": 5905,
      "Ġsituation": 5906,
      "Ġfoods": 5907,
      "Ġgreet": 5908,
      "Ġawesome": 5909,
      "ĠJessie": 5910,
      "ĠAunt": 5911,
      "ĠcanÃ¢": 5912,
      "Ġusual": 5913,
      "vin": 5914,
      "Ġsighs": 5915,
      "Ġknowledge": 5916,
      "itely": 5917,
      "irts": 5918,
      "Ġpassing": 5919,
      "ĠLulu": 5920,
      "Ġshined": 5921,
      "Ġflags": 5922,
      "ĠClaire": 5923,
      "Ġexha": 5924,
      "Ġdared": 5925,
      "Ġbalancing": 5926,
      "Ġplenty": 5927,
      "ĠyouÃ¢": 5928,
      "Ġmatched": 5929,
      "Ġtowels": 5930,
      "Ġlied": 5931,
      "ĠMatt": 5932,
      "ults": 5933,
      "ĠSusan": 5934,
      "ĠTilly": 5935,
      "Ġhomework": 5936,
      "Ġoutfit": 5937,
      "though": 5938,
      "ĠMad": 5939,
      "Ġslimy": 5940,
      "Ġbravery": 5941,
      "Ġtruly": 5942,
      "Ġpretends": 5943,
      "avi": 5944,
      "Ġzookeeper": 5945,
      "acob": 5946,
      "Ġcheering": 5947,
      "Ġheel": 5948,
      "Ġwedding": 5949,
      "Ġgoals": 5950,
      "Ġrainbows": 5951,
      "jamas": 5952,
      "Ġsausages": 5953,
      "cuse": 5954,
      "ĠHoppy": 5955,
      "Ġthreat": 5956,
      "Ġaccomplish": 5957,
      "Ġpatted": 5958,
      "Ġcaused": 5959,
      "Ġpaintings": 5960,
      "Ġreaching": 5961,
      "Dave": 5962,
      "Ġresting": 5963,
      "Ġradishes": 5964,
      "Ġarguing": 5965,
      "Ġpacking": 5966,
      "Teddy": 5967,
      "ĠLou": 5968,
      "Excuse": 5969,
      "...": 5970,
      "bert": 5971,
      "Ġgrowling": 5972,
      "Ġblooming": 5973,
      "ĠAlways": 5974,
      "Ġspraying": 5975,
      "Ġfoc": 5976,
      "Ġwaiter": 5977,
      "Pete": 5978,
      "Ġexhausted": 5979,
      "iar": 5980,
      "Ġge": 5981,
      "Ġstruggle": 5982,
      "izzie": 5983,
      "aa": 5984,
      "Ġsweets": 5985,
      "Ġsticking": 5986,
      "Ġpout": 5987,
      "ences": 5988,
      "ĠMomo": 5989,
      "Ġmarkers": 5990,
      "Ġmotion": 5991,
      "Ġworker": 5992,
      "Ġkneeled": 5993,
      "Ġpaddled": 5994,
      "Ġgrowl": 5995,
      "ĠFor": 5996,
      "Ġsled": 5997,
      "immer": 5998,
      "Ġsuitc": 5999,
      "Ġmane": 6000,
      "Leo": 6001,
      "Ġsway": 6002,
      "Ġsnugg": 6003,
      "Ġstartled": 6004,
      "Ġcubes": 6005,
      "Ġrescued": 6006,
      "Ġboo": 6007,
      "Ġspike": 6008,
      "Ġwritten": 6009,
      "Ġdusty": 6010,
      "Ġtraveled": 6011,
      "Ġinviting": 6012,
      "Andy": 6013,
      "hello": 6014,
      "Ġexpected": 6015,
      "Ġbead": 6016,
      "Ġslap": 6017,
      "Ġcuts": 6018,
      "Ġcent": 6019,
      "Ġbottles": 6020,
      "Ġmatching": 6021,
      "Ġguest": 6022,
      "Ġsinger": 6023,
      "Ġflavor": 6024,
      "Ġreveal": 6025,
      "Ġlearns": 6026,
      "ĠAbby": 6027,
      "ĠLinda": 6028,
      "Ġheav": 6029,
      "lee": 6030,
      "Ġprincesses": 6031,
      "Ġcreating": 6032,
      "Ġregretted": 6033,
      "Ġfart": 6034,
      "ĠBo": 6035,
      "Ġbloomed": 6036,
      "Yeah": 6037,
      "Ġtrembling": 6038,
      "Ġreplaced": 6039,
      "Ġfir": 6040,
      "Ġarrive": 6041,
      "Ġmarriage": 6042,
      "Grace": 6043,
      "you": 6044,
      "pite": 6045,
      "Ġrecorded": 6046,
      "aisies": 6047,
      "Ġpencils": 6048,
      "Ġincluded": 6049,
      "ĠAdam": 6050,
      "Ġlap": 6051,
      "Ġchuck": 6052,
      "Ġobserved": 6053,
      "Ġdisagree": 6054,
      "njoy": 6055,
      "Ġdaisies": 6056,
      "Ġpots": 6057,
      "ĠJeff": 6058,
      "Ġactivities": 6059,
      "Kitty": 6060,
      "Ġprayer": 6061,
      "Ġfirm": 6062,
      "Ġtimer": 6063,
      "Ġpajamas": 6064,
      "Ġroads": 6065,
      "ĠHa": 6066,
      "ĠLuke": 6067,
      "Ġwires": 6068,
      "Ġremoved": 6069,
      "Ġdarkness": 6070,
      "Ġworries": 6071,
      "Ġuses": 6072,
      "Ġventured": 6073,
      "Ġcountryside": 6074,
      "ĠJu": 6075,
      "Ġorganizing": 6076,
      "Ġstare": 6077,
      "Ġcompletely": 6078,
      "uzz": 6079,
      "ĠBy": 6080,
      "Ġworkers": 6081,
      "Ġopening": 6082,
      "Ġfairies": 6083,
      "Ġrelief": 6084,
      "Ġwasted": 6085,
      "angled": 6086,
      "Fr": 6087,
      "George": 6088,
      "Ġleap": 6089,
      "Ġreply": 6090,
      "Ġowners": 6091,
      "Ġstorekeeper": 6092,
      "Ġcott": 6093,
      "Ġbelly": 6094,
      "ĠSadly": 6095,
      "vers": 6096,
      "Ġranger": 6097,
      "Ġfault": 6098,
      "ĠMart": 6099,
      "aty": 6100,
      "Ġpartic": 6101,
      "Bobby": 6102,
      "ĠJohnson": 6103,
      "Fred": 6104,
      "Ġunf": 6105,
      "Ġquacked": 6106,
      "Ġpolishing": 6107,
      "Ġleader": 6108,
      "Ġstern": 6109,
      "ora": 6110,
      "iding": 6111,
      "lowly": 6112,
      "Ġbecoming": 6113,
      "ĠJenna": 6114,
      "Ġflames": 6115,
      "Ġlamb": 6116,
      "Ġkites": 6117,
      "ctions": 6118,
      "Ġagrees": 6119,
      "Ġpoems": 6120,
      "Ġpenguins": 6121,
      "ĠwasnÃ¢": 6122,
      "Afterwards": 6123,
      "Ġfaced": 6124,
      "ĠOut": 6125,
      "ĠQuack": 6126,
      "Ġeverybody": 6127,
      "Ġseesaw": 6128,
      "However": 6129,
      "ĠPinky": 6130,
      "Sophie": 6131,
      "Annie": 6132,
      "ĠSuzie": 6133,
      "Ġfolding": 6134,
      "Ġmelting": 6135,
      "Ġscales": 6136,
      "Ġsquealed": 6137,
      "Ġthro": 6138,
      "Ġhealed": 6139,
      "Ġvanish": 6140,
      "ĠUnfortunately": 6141,
      "Ġhelmets": 6142,
      "ĠDolly": 6143,
      "Ġwink": 6144,
      "ĠJones": 6145,
      "ĠBoth": 6146,
      "Ġlogs": 6147,
      "ords": 6148,
      "Ġcrabs": 6149,
      "ĠĊĠ": 6150,
      "Ġthroat": 6151,
      "hell": 6152,
      "ĠLeave": 6153,
      "Ġusually": 6154,
      "Ġopinion": 6155,
      "Ġcrumbs": 6156,
      "Ġtractor": 6157,
      "Ġripe": 6158,
      "Ġdipped": 6159,
      "opes": 6160,
      "lings": 6161,
      "Ġscra": 6162,
      "ĠChrist": 6163,
      "ĠHannah": 6164,
      "Ġseems": 6165,
      "Ġast": 6166,
      "Ġlollipops": 6167,
      "Ġtwinkle": 6168,
      "Ġcash": 6169,
      "Ġrisk": 6170,
      "Ġteaches": 6171,
      "ĠBye": 6172,
      "Ġcomm": 6173,
      "Ġgroceries": 6174,
      "ĠFollow": 6175,
      "Ġden": 6176,
      "Ġknights": 6177,
      "ivery": 6178,
      "asm": 6179,
      "Ġprovided": 6180,
      "Ġdentist": 6181,
      "Ġpolished": 6182,
      "Ġvalued": 6183,
      "Ġstaying": 6184,
      "ids": 6185,
      "elle": 6186,
      "Ġpeeking": 6187,
      "aze": 6188,
      "Ġsnakes": 6189,
      "Mrs": 6190,
      "Ġscru": 6191,
      "Ġinterested": 6192,
      "Paul": 6193,
      "Ġblows": 6194,
      "Ġrubs": 6195,
      "ĠWatch": 6196,
      "Ġcautiously": 6197,
      "Ġcracked": 6198,
      "Ġrings": 6199,
      "Ġunited": 6200,
      "ophia": 6201,
      "araway": 6202,
      "ĠPut": 6203,
      "Ġfaraway": 6204,
      "Ġdesert": 6205,
      "ĠKayla": 6206,
      "ĠSorry": 6207,
      "Ġwinked": 6208,
      "Ġmisses": 6209,
      "Ġprotecting": 6210,
      "ĠLizzy": 6211,
      "Maggie": 6212,
      "Ġfreed": 6213,
      "Ġmarked": 6214,
      "Ġyounger": 6215,
      "Ġwrist": 6216,
      "Ġcloses": 6217,
      "Ġwandering": 6218,
      "mas": 6219,
      "Ġbalanced": 6220,
      "Ġchuckled": 6221,
      "Ġfuzzy": 6222,
      "Mittens": 6223,
      "Ġforehead": 6224,
      "Ġlistens": 6225,
      "Ġpastries": 6226,
      "Ġsingle": 6227,
      "Ġsigned": 6228,
      "go": 6229,
      "Ġrobb": 6230,
      "Ġbeads": 6231,
      "Ġparticular": 6232,
      "Ġroses": 6233,
      "boo": 6234,
      "ĠFox": 6235,
      "Ġboom": 6236,
      "Ab": 6237,
      "Ġactions": 6238,
      "Ġdirections": 6239,
      "Ġhowever": 6240,
      "ÅĵMommy": 6241,
      "Ġcopy": 6242,
      "igi": 6243,
      "essie": 6244,
      "Ġcough": 6245,
      "Ġsplashes": 6246,
      "Ġcrackers": 6247,
      "rance": 6248,
      "aura": 6249,
      "Ġbaker": 6250,
      "Ġnaps": 6251,
      "Ġcous": 6252,
      "ppers": 6253,
      "Ġroots": 6254,
      "Ġfilling": 6255,
      "ĠTwo": 6256,
      "Ġyesterday": 6257,
      "Ġsnowballs": 6258,
      "ÅĵWhatÃ¢": 6259,
      "Ġrestored": 6260,
      "Ġfluttered": 6261,
      "Ġdelivery": 6262,
      "Ġrolls": 6263,
      "abel": 6264,
      "arling": 6265,
      "Ġstem": 6266,
      "Ġconn": 6267,
      "Ġswooped": 6268,
      "Bad": 6269,
      "dies": 6270,
      "iles": 6271,
      "Ġgaze": 6272,
      "Ġsuitcase": 6273,
      "Ġwiggled": 6274,
      "Unfortunately": 6275,
      "Ġtipt": 6276,
      "ilo": 6277,
      "ĠMick": 6278,
      "Ġsomebody": 6279,
      "ĠY": 6280,
      "James": 6281,
      "Ġbumpy": 6282,
      "ĠPipp": 6283,
      "Ġitchy": 6284,
      "bbly": 6285,
      "Ġrefle": 6286,
      "ĠChristmas": 6287,
      "Ġswirl": 6288,
      "Ġslam": 6289,
      "Ëľ": 6290,
      "Ġphotos": 6291,
      "Ellie": 6292,
      "âĤ¬Ëľ": 6293,
      "oline": 6294,
      "Ġtwin": 6295,
      "Some": 6296,
      "Ġpastels": 6297,
      "Ġcelebration": 6298,
      "Ġtrips": 6299,
      "Ġpedals": 6300,
      "atches": 6301,
      "Ġbacked": 6302,
      "Ġtallest": 6303,
      "Ġawake": 6304,
      "ĠKeep": 6305,
      "Ġfroze": 6306,
      "Ġcause": 6307,
      "Ġcashier": 6308,
      "Henry": 6309,
      "Ġnect": 6310,
      "Ġremote": 6311,
      "Ġlined": 6312,
      "Ġdarker": 6313,
      "Ġdetermination": 6314,
      "Ġnectar": 6315,
      "ility": 6316,
      "ĠCindy": 6317,
      "Ġspeaking": 6318,
      "ĠDoggy": 6319,
      "Ġsecure": 6320,
      "ormed": 6321,
      "ĠMany": 6322,
      "Alex": 6323,
      "ĠLena": 6324,
      "Ġknees": 6325,
      "ĠFriend": 6326,
      "Ġwow": 6327,
      "Ġpiggy": 6328,
      "anes": 6329,
      "Ġcomplaining": 6330,
      "Ġbars": 6331,
      "per": 6332,
      "Ġrecording": 6333,
      "Ġsneaky": 6334,
      "Run": 6335,
      "Ġsilent": 6336,
      "Ġvideos": 6337,
      "oys": 6338,
      "Ġhealth": 6339,
      "Ġaccomplishment": 6340,
      "Ġliqu": 6341,
      "Ġpleasure": 6342,
      "Ġacting": 6343,
      "ĠMo": 6344,
      "?\",": 6345,
      "Ġentrance": 6346,
      "ĠJon": 6347,
      "Ġty": 6348,
      "ĠBird": 6349,
      "Ġwears": 6350,
      "Ġrockets": 6351,
      "Bun": 6352,
      "Ġdelivered": 6353,
      "Ġmiles": 6354,
      "Ġglee": 6355,
      "Ġinsp": 6356,
      "May": 6357,
      "Ġhi": 6358,
      "esmer": 6359,
      "Ġcoloured": 6360,
      "ĠPrin": 6361,
      "Ġopp": 6362,
      "Ġtricked": 6363,
      "ĠEnjoy": 6364,
      "ĠBeing": 6365,
      "Ġmesmer": 6366,
      "sequ": 6367,
      "boat": 6368,
      "Ġcheeks": 6369,
      "yond": 6370,
      "Ġaff": 6371,
      "Ġbeyond": 6372,
      "Ġafterwards": 6373,
      "Ġnoon": 6374,
      "Ġsib": 6375,
      "Ġconsequ": 6376,
      "Ġhissed": 6377,
      "Ġstays": 6378,
      "cited": 6379,
      "Ġinsects": 6380,
      "Ġglasses": 6381,
      "ky": 6382,
      "Ġbowls": 6383,
      "ĠTara": 6384,
      "umm": 6385,
      "Time": 6386,
      "Joey": 6387,
      "Ġjoking": 6388,
      "ĠMon": 6389,
      "ĠJessica": 6390,
      "ĠNothing": 6391,
      "Ġsobbed": 6392,
      "Ġtickled": 6393,
      "Ġfarther": 6394,
      "Fine": 6395,
      "Ġcolored": 6396,
      "Ġburst": 6397,
      "affes": 6398,
      "Ġscaring": 6399,
      "Ġstolen": 6400,
      "Ġattack": 6401,
      "Ġsense": 6402,
      "Ġsandcastles": 6403,
      "Ġtricky": 6404,
      "Millie": 6405,
      "Ġrule": 6406,
      "Ġmasks": 6407,
      "arter": 6408,
      "Ġcovers": 6409,
      "iki": 6410,
      "ĠĠĊ": 6411,
      "Ġdeal": 6412,
      "Ġgiraffes": 6413,
      "Ġinstrum": 6414,
      "ÅĵCome": 6415,
      "Ġcalmed": 6416,
      "Rose": 6417,
      "Ġhandful": 6418,
      "?'": 6419,
      "Ġtalented": 6420,
      "Bl": 6421,
      "ĠSparky": 6422,
      "Ġpause": 6423,
      "Sad": 6424,
      "Ġtangled": 6425,
      "Ġindeed": 6426,
      "aren": 6427,
      "Ġadding": 6428,
      "Ġsmarter": 6429,
      "Ġscarves": 6430,
      "Ġcandies": 6431,
      "ths": 6432,
      "Kate": 6433,
      "Ġlung": 6434,
      "Ġshirts": 6435,
      "Ġachieved": 6436,
      "Ġchoices": 6437,
      "Ġconsequences": 6438,
      "Ġliquid": 6439,
      "ossible": 6440,
      "ĠMel": 6441,
      "Ġyourselves": 6442,
      "ĠLarry": 6443,
      "rious": 6444,
      "Ġbehavi": 6445,
      "Ġleading": 6446,
      "Ġbumps": 6447,
      "ĠJacob": 6448,
      "Ġreads": 6449,
      "Ġbatteries": 6450,
      "igers": 6451,
      "ĠLizzie": 6452,
      "choo": 6453,
      "Ġhesitated": 6454,
      "Ġimpossible": 6455,
      "Ġbadge": 6456,
      "ept": 6457,
      "Ġmi": 6458,
      "Ġpaddle": 6459,
      "Ġmixture": 6460,
      "Ġexplorers": 6461,
      "Ġdarling": 6462,
      "iled": 6463,
      "Ġmagnets": 6464,
      "lling": 6465,
      "ouch": 6466,
      "Ġclowns": 6467,
      "Ġkicks": 6468,
      "ĠJulia": 6469,
      "ĠGet": 6470,
      "Charlie": 6471,
      "Ġrecommended": 6472,
      "Shh": 6473,
      "Ġweeping": 6474,
      "Ġgracefully": 6475,
      "ners": 6476,
      "Ġexperien": 6477,
      "ana": 6478,
      "Ġseashell": 6479,
      "Ġseeker": 6480,
      "Ġbakery": 6481,
      "ĠEl": 6482,
      "Ġfirefighters": 6483,
      "anging": 6484,
      "Ġsalty": 6485,
      "vest": 6486,
      "brush": 6487,
      "Ġimproved": 6488,
      "Whe": 6489,
      "rig": 6490,
      "Those": 6491,
      "Ġswept": 6492,
      "atul": 6493,
      "coat": 6494,
      "Ġdeserve": 6495,
      "Ġstroked": 6496,
      "ĠPandy": 6497,
      "uggles": 6498,
      "Ġflapping": 6499,
      "Ġwipes": 6500,
      "Ġbeginning": 6501,
      "Ġcomplained": 6502,
      "Ġmushrooms": 6503,
      "urry": 6504,
      "ĠHappy": 6505,
      "yan": 6506,
      "Ġhider": 6507,
      "ĠMickey": 6508,
      "obody": 6509,
      "itches": 6510,
      "ĠSqu": 6511,
      "ĠSque": 6512,
      "Ġsteer": 6513,
      "Ġknocks": 6514,
      "Ġcust": 6515,
      "ĠGigi": 6516,
      "Danny": 6517,
      "ĠMira": 6518,
      "Ġthorn": 6519,
      "Ġseven": 6520,
      "Ġcans": 6521,
      "Ġteased": 6522,
      "Ġobjects": 6523,
      "ĠPrincess": 6524,
      "Ġparties": 6525,
      "Days": 6526,
      "ÅĵDo": 6527,
      "Ġtravelled": 6528,
      "Ġthird": 6529,
      "Ġhearing": 6530,
      "Ġbasement": 6531,
      "Ġtigers": 6532,
      "Ġcupcakes": 6533,
      "Ġhoriz": 6534,
      "Ġclick": 6535,
      "ÅĵYouÃ¢": 6536,
      "Ġfever": 6537,
      "Ġsnuck": 6538,
      "Ġheading": 6539,
      "Ġseconds": 6540,
      "Ġdots": 6541,
      "Ġraincoat": 6542,
      "tle": 6543,
      "ĠSnuggles": 6544,
      "Ġsiblings": 6545,
      "Ġhorizon": 6546,
      "elia": 6547,
      "ĠPl": 6548,
      "Ġsmiley": 6549,
      "Ġperformance": 6550,
      "Ġcustom": 6551,
      "Ġartist": 6552,
      "Ġhallway": 6553,
      "no": 6554,
      "Ġbeam": 6555,
      "Ġmarker": 6556,
      "Ġsnatched": 6557,
      "Ġlighter": 6558,
      "Ġyells": 6559,
      "Ġjackets": 6560,
      "Ġdrums": 6561,
      "Ġfluttering": 6562,
      "indr": 6563,
      "ÅĵHi": 6564,
      "ans": 6565,
      "step": 6566,
      "pare": 6567,
      "ĠLuckily": 6568,
      "Ġruining": 6569,
      "Ġgems": 6570,
      "Ġbedtime": 6571,
      "igning": 6572,
      "ĠwouldnÃ¢": 6573,
      "Ġraindr": 6574,
      "Ġwee": 6575,
      "Ġneither": 6576,
      "Ġconcer": 6577,
      "ĠJazz": 6578,
      "Ġbuying": 6579,
      "ĠSlowly": 6580,
      "rigued": 6581,
      "Ġpuppies": 6582,
      "Ġlett": 6583,
      "dri": 6584,
      "ĠWater": 6585,
      "ĠWithout": 6586,
      "Ġpaying": 6587,
      "Ġscrubbed": 6588,
      "Ġcelebrating": 6589,
      "Ġfamilies": 6590,
      "Ġdollhouse": 6591,
      "Ġannoy": 6592,
      "ÅĵWow": 6593,
      "Ġcreamy": 6594,
      "Ġlettuce": 6595,
      "band": 6596,
      "Ġamong": 6597,
      "umbling": 6598,
      "Ġpeacefully": 6599,
      "Ġrivers": 6600,
      "Ġscratches": 6601,
      "Ġwrapping": 6602,
      "Ġwidened": 6603,
      "Ġdrifted": 6604,
      "Ġwadd": 6605,
      "Ġrumble": 6606,
      "Bobo": 6607,
      "Ġtasks": 6608,
      "atur": 6609,
      "ivity": 6610,
      "Lilly": 6611,
      "ĠEverybody": 6612,
      "ades": 6613,
      "Ġtreehouse": 6614,
      "Ġhides": 6615,
      "Ġwins": 6616,
      "Ġrepa": 6617,
      "Ġbehaved": 6618,
      "ĠBuzzy": 6619,
      "cers": 6620,
      "Ġrusty": 6621,
      "alph": 6622,
      "Ġplayers": 6623,
      "ĠwonÃ¢": 6624,
      "Ġlun": 6625,
      "Ru": 6626,
      "ael": 6627,
      "Ġcuddly": 6628,
      "immering": 6629,
      "fall": 6630,
      "Ġuns": 6631,
      "Ġfact": 6632,
      "ounce": 6633,
      "Ġarrows": 6634,
      "Ġrewarded": 6635,
      "Ġwilling": 6636,
      "Ġlower": 6637,
      "ĠSophia": 6638,
      "Ġneedles": 6639,
      "Ġsource": 6640,
      "Ġcreativity": 6641,
      "Ġshrinking": 6642,
      "Ġcor": 6643,
      "Ġlosing": 6644,
      "Ġtemper": 6645,
      "Ġech": 6646,
      "Polly": 6647,
      "Ġrepaired": 6648,
      "Ġpassen": 6649,
      "ĠLaura": 6650,
      "Ġfears": 6651,
      "Toby": 6652,
      "iece": 6653,
      "Ġgrandpare": 6654,
      "Ġincluding": 6655,
      "Ġchoo": 6656,
      "Milly": 6657,
      "Ġtiptoed": 6658,
      "itched": 6659,
      "ĠAbbie": 6660,
      "Ġcreations": 6661,
      "Ġtapped": 6662,
      "Ġgrassy": 6663,
      "ĠEmmy": 6664,
      "Ġchefs": 6665,
      "ongr": 6666,
      "ĠGoodbye": 6667,
      "Ġdef": 6668,
      "ĠJune": 6669,
      "ded": 6670,
      "Ġminerals": 6671,
      "Ġseparated": 6672,
      "jo": 6673,
      "Ġsprinkled": 6674,
      "Ġrising": 6675,
      "ĠRock": 6676,
      "Harry": 6677,
      "Ġimagining": 6678,
      "Ġgranted": 6679,
      "ichael": 6680,
      "Ġchop": 6681,
      "Ġaud": 6682,
      "Ġgross": 6683,
      "Ġtempt": 6684,
      "hew": 6685,
      "Ġaren": 6686,
      "ĠPam": 6687,
      "Great": 6688,
      "An": 6689,
      "Ġswimsuit": 6690,
      "ĠZip": 6691,
      "ĠPo": 6692,
      "ongratul": 6693,
      "imon": 6694,
      "Ġtiss": 6695,
      "Ġpans": 6696,
      "Ġlimes": 6697,
      "hog": 6698,
      "Ġstomped": 6699,
      "Ġscrewdri": 6700,
      "Ġcoup": 6701,
      "Ġgrabbing": 6702,
      "Ġpouted": 6703,
      "Ġbackwards": 6704,
      "Ġspong": 6705,
      "itude": 6706,
      "Ġdecorating": 6707,
      "ÅĵMy": 6708,
      "ĠJay": 6709,
      "Ġdamage": 6710,
      "ishy": 6711,
      "Ġhesitant": 6712,
      "Ġearn": 6713,
      "Ġprinting": 6714,
      "Ġpeppers": 6715,
      "Have": 6716,
      "ĠOlive": 6717,
      "Ġtodd": 6718,
      "Ġstung": 6719,
      "Ġsquares": 6720,
      "Ġunpacked": 6721,
      "cl": 6722,
      "ments": 6723,
      "Ġtramp": 6724,
      "ntil": 6725,
      "Ġslower": 6726,
      "Ġcowb": 6727,
      "Ġdiving": 6728,
      "Ġplanning": 6729,
      "Ġbeloved": 6730,
      "Ġonions": 6731,
      "Ġmaterials": 6732,
      "Ġheavier": 6733,
      "Ġchip": 6734,
      "Ġgrowls": 6735,
      "Ġraindrops": 6736,
      "Ġwrink": 6737,
      "Ġmer": 6738,
      "Ġpointy": 6739,
      "ĠRemember": 6740,
      "Ġsnowmen": 6741,
      "cope": 6742,
      "Ġsurroundings": 6743,
      "Ġpromises": 6744,
      "Ġavoid": 6745,
      "Ġscrewdriver": 6746,
      "Meow": 6747,
      "Ġrecipe": 6748,
      "Wh": 6749,
      "Yummy": 6750,
      "Ġaudience": 6751,
      "Ġsailboat": 6752,
      "Ġcousin": 6753,
      "Ġrustling": 6754,
      "Ġforgiven": 6755,
      "Ġneighbours": 6756,
      "ĠBee": 6757,
      "ĠQ": 6758,
      "Ġblocking": 6759,
      "Ġcenter": 6760,
      "kend": 6761,
      "Ġslices": 6762,
      "Ġgobbled": 6763,
      "eds": 6764,
      "Ġwiping": 6765,
      "ĠStella": 6766,
      "Ġweekend": 6767,
      "Ġtemperature": 6768,
      "Ġtouc": 6769,
      "Ġhedgehog": 6770,
      "Ġtrampoline": 6771,
      "ueen": 6772,
      "ĠNick": 6773,
      "Tr": 6774,
      "int": 6775,
      "Ġrefu": 6776,
      "ĠEls": 6777,
      "Ġarr": 6778,
      "Ġhelpers": 6779,
      "ĠRobby": 6780,
      "Ġwobbled": 6781,
      "Ġrip": 6782,
      "Ġwindy": 6783,
      "pr": 6784,
      "yes": 6785,
      "Ġcouple": 6786,
      "Ġstool": 6787,
      "Ġdiscussed": 6788,
      "ushing": 6789,
      "For": 6790,
      "sty": 6791,
      "ae": 6792,
      "Ġdesigned": 6793,
      "ĠEarth": 6794,
      "Ġornaments": 6795,
      "Fo": 6796,
      "Ġdreamt": 6797,
      "Oops": 6798,
      "itted": 6799,
      "Ġnoses": 6800,
      "Ġcorners": 6801,
      "child": 6802,
      "Ġpecked": 6803,
      "Ġslammed": 6804,
      "eal": 6805,
      "unched": 6806,
      "Ġswans": 6807,
      "Ġafford": 6808,
      "uzzy": 6809,
      "iley": 6810,
      "Ġhus": 6811,
      "Ew": 6812,
      "Roar": 6813,
      "Ġfeast": 6814,
      "Ġsports": 6815,
      "Ġhitting": 6816,
      "oey": 6817,
      "Ġage": 6818,
      "ĠDr": 6819,
      "Ġstreets": 6820,
      "ably": 6821,
      "ĠMikey": 6822,
      "Ġwag": 6823,
      "ĠRobert": 6824,
      "Clara": 6825,
      "Ġtissue": 6826,
      "Sandy": 6827,
      "Ġdads": 6828,
      "Ġache": 6829,
      "Ġaside": 6830,
      "ccoon": 6831,
      "Ġraccoon": 6832,
      "Ġsponge": 6833,
      "Ġstain": 6834,
      "ĠMilo": 6835,
      "Ġrequested": 6836,
      "Ġmeals": 6837,
      "Ġcuriously": 6838,
      "Ġforks": 6839,
      "Ġsunflowers": 6840,
      "Ġreflection": 6841,
      "Ġsnowfl": 6842,
      "arrow": 6843,
      "Ġwarnings": 6844,
      "Ġtails": 6845,
      "Ġdances": 6846,
      "Ġprett": 6847,
      "ĠSc": 6848,
      "Ġplans": 6849,
      "Ġbows": 6850,
      "ido": 6851,
      "Ġvanilla": 6852,
      "ĠBinky": 6853,
      "Ġshaped": 6854,
      "Ġfamiliar": 6855,
      "Ġsparks": 6856,
      "ĠRyan": 6857,
      "Ġdet": 6858,
      "ĠGranny": 6859,
      "cky": 6860,
      "Ġgri": 6861,
      "Ġleaning": 6862,
      "Ġdollars": 6863,
      "--": 6864,
      "Ġcoloring": 6865,
      "Ġremembering": 6866,
      "Ġadult": 6867,
      "Ġbreathed": 6868,
      "ĠTess": 6869,
      "Ġintrigued": 6870,
      "ĠChris": 6871,
      "Ġgreeted": 6872,
      "Ġsale": 6873,
      "Ġscrews": 6874,
      "using": 6875,
      "Ġgrandchild": 6876,
      "ition": 6877,
      "Ġduckling": 6878,
      "ne": 6879,
      "Ġforgets": 6880,
      "Ġspreading": 6881,
      "osen": 6882,
      "Ġgasp": 6883,
      "Ġchosen": 6884,
      "Ġastron": 6885,
      "Ġthrown": 6886,
      "Ġshops": 6887,
      "ĠThose": 6888,
      "Ġprettier": 6889,
      "Ġtwice": 6890,
      "Ġpraying": 6891,
      "Ġtunnels": 6892,
      "Surpr": 6893,
      "aker": 6894,
      "Ġhour": 6895,
      "Pat": 6896,
      "Ġpotion": 6897,
      "Ġenthusi": 6898,
      "ĠQueen": 6899,
      "Ġtouches": 6900,
      "Ġastronaut": 6901,
      "Ġswords": 6902,
      "llen": 6903,
      "Ġenthusiasm": 6904,
      "Ġhusband": 6905,
      "arac": 6906,
      "Ġsailors": 6907,
      "ertain": 6908,
      "Baby": 6909,
      "Blue": 6910,
      "Ġgardener": 6911,
      "Fin": 6912,
      "otten": 6913,
      "Ġmoo": 6914,
      "endy": 6915,
      "Woof": 6916,
      "Ġhops": 6917,
      "Ġzipping": 6918,
      "ĠFinn": 6919,
      "Ġspikes": 6920,
      "Ġsuperheroes": 6921,
      "Ġcorre": 6922,
      "Ġreason": 6923,
      "Boo": 6924,
      "Ġmagician": 6925,
      "Ġwishing": 6926,
      "Ġdaring": 6927,
      "Ġspoonful": 6928,
      "Ġgrandparents": 6929,
      "ĠBluey": 6930,
      "mallow": 6931,
      "Ġleast": 6932,
      "Ġmarsh": 6933,
      "Ġskunk": 6934,
      "ĠOur": 6935,
      "Jul": 6936,
      "Ġreass": 6937,
      "ĠThanks": 6938,
      "Ġchanging": 6939,
      "Ġdod": 6940,
      "ĠNobody": 6941,
      "Ġborrowed": 6942,
      "Ġscamp": 6943,
      "Ġcounts": 6944,
      "Ġpens": 6945,
      "Ġflight": 6946,
      "Ġforgetting": 6947,
      "Ġrotten": 6948,
      "Ġbodies": 6949,
      "Ġencourag": 6950,
      "Ġflavors": 6951,
      "Ġguests": 6952,
      "Ġ10": 6953,
      "Ġhopeful": 6954,
      "ently": 6955,
      "Ġneare": 6956,
      "ĠAbi": 6957,
      "Ġwoof": 6958,
      "ounced": 6959,
      "Bill": 6960,
      "Ġsnuggle": 6961,
      "Ġmesmerized": 6962,
      "Ġsending": 6963,
      "ĠFriends": 6964,
      "fly": 6965,
      "Ġheroes": 6966,
      "Ġcharac": 6967,
      "ĠRover": 6968,
      "Ġcharacter": 6969,
      "Ġmuscle": 6970,
      "Maria": 6971,
      "stick": 6972,
      "Ġbuzzed": 6973,
      "ĠSqueaky": 6974,
      "ĠCra": 6975,
      "Ġseaw": 6976,
      "Ġneatly": 6977,
      "Ġgrows": 6978,
      "the": 6979,
      "oni": 6980,
      "Whee": 6981,
      "Our": 6982,
      "wk": 6983,
      "Ġwraps": 6984,
      "Ġsteady": 6985,
      "Ġposs": 6986,
      "Ġnibb": 6987,
      "Ġfeeding": 6988,
      "ĠUntil": 6989,
      "Ġmarshmallow": 6990,
      "ĠListen": 6991,
      "Ġhandsome": 6992,
      "Ġcond": 6993,
      "Ġmints": 6994,
      "irrel": 6995,
      "Ġdelivering": 6996,
      "Tina": 6997,
      "Ġnine": 6998,
      "Ġoh": 6999,
      "antha": 7000,
      "Ġdived": 7001,
      "Katie": 7002,
      "bba": 7003,
      "Ġpolitely": 7004,
      "Ġzebras": 7005,
      "Pe": 7006,
      "Ġonward": 7007,
      "Ġalien": 7008,
      "ĠMartha": 7009,
      "Ġsuffering": 7010,
      "Ġnapkins": 7011,
      "Ġwarmer": 7012,
      "armer": 7013,
      "ĠJudy": 7014,
      "years": 7015,
      "Ġsneezing": 7016,
      "Ġbaths": 7017,
      "Ġhonked": 7018,
      "Ġplain": 7019,
      "opsy": 7020,
      "Ġdefe": 7021,
      "Ġplucked": 7022,
      "Ġcrashing": 7023,
      "Tweety": 7024,
      "Ġmatters": 7025,
      "Ġembarrass": 7026,
      "Miss": 7027,
      "Ġposter": 7028,
      "ection": 7029,
      "ĠthatÃ¢": 7030,
      "meal": 7031,
      "Ġlifts": 7032,
      "By": 7033,
      "Dan": 7034,
      "Ġrefreshing": 7035,
      "ÅĵMom": 7036,
      "Ġunsure": 7037,
      "Ġseaweed": 7038,
      "Ġlungs": 7039,
      "ĠBirthday": 7040,
      "Ġstudents": 7041,
      "Ġincreased": 7042,
      "Ġcrew": 7043,
      "Ġjoining": 7044,
      "Ġstands": 7045,
      "ĠEx": 7046,
      "Ruby": 7047,
      "Ġtoddler": 7048,
      "Ġoatmeal": 7049,
      "Ġscen": 7050,
      "allowed": 7051,
      "Ġproper": 7052,
      "Ġpreparing": 7053,
      "Ġswallowed": 7054,
      "Ġdip": 7055,
      "Ġglued": 7056,
      "Ġthud": 7057,
      "ÅĵBut": 7058,
      "Ġexpress": 7059,
      "Ġwhispers": 7060,
      "Ġrespond": 7061,
      "Ġwatering": 7062,
      "aster": 7063,
      "Ġamount": 7064,
      "Ġdie": 7065,
      "Ġropes": 7066,
      "ĠRobbie": 7067,
      "ĠStar": 7068,
      "Ġperformed": 7069,
      "Ġtoaster": 7070,
      "ĠMaya": 7071,
      "ĠKiki": 7072,
      "Ġstarfish": 7073,
      "ĠHoot": 7074,
      "Ġleads": 7075,
      "Ġtrembled": 7076,
      "Ġpresses": 7077,
      "Ġwobbly": 7078,
      "Ġtriangles": 7079,
      "Sadly": 7080,
      "Ġhawk": 7081,
      "Ġlessons": 7082,
      "Ġcushions": 7083,
      "Ġbiting": 7084,
      "while": 7085,
      "Ġpostman": 7086,
      "Ġgeese": 7087,
      "ÅĵWell": 7088,
      "ĠJanie": 7089,
      "Nina": 7090,
      "Ġdancers": 7091,
      "Ġpops": 7092,
      "Nemo": 7093,
      "Ġpuff": 7094,
      "Ġtalks": 7095,
      "Ġsniffs": 7096,
      "Ġresisted": 7097,
      "Ġfocused": 7098,
      "Ġscraped": 7099,
      "Ġmerry": 7100,
      "Back": 7101,
      "Ġbully": 7102,
      "Ġadults": 7103,
      "Ġpanicked": 7104,
      "Ġconfl": 7105,
      "Ġrushing": 7106,
      "Ġnecklaces": 7107,
      "Ġfreedom": 7108,
      "vant": 7109,
      "Ġflas": 7110,
      "Ġpuppet": 7111,
      "Ġsofter": 7112,
      "Ġslips": 7113,
      "Ġfirmly": 7114,
      "Ġwaddled": 7115,
      "Ġtrot": 7116,
      "iona": 7117,
      "ados": 7118,
      "Ġjoyful": 7119,
      "Ġfirefly": 7120,
      "Ġencouraging": 7121,
      "Ducky": 7122,
      "ĠSun": 7123,
      "Ġtested": 7124,
      "Ġwrigg": 7125,
      "Ġdropping": 7126,
      "ÅĵWhere": 7127,
      "Ġdrawers": 7128,
      "Ġfrowning": 7129,
      "onna": 7130,
      "Ġtables": 7131,
      "ĠJackie": 7132,
      "Ġwaterfall": 7133,
      "Ġworn": 7134,
      "ĠZoey": 7135,
      "Ġwiggle": 7136,
      "fia": 7137,
      "Ġev": 7138,
      "Ġblast": 7139,
      "ĠRalph": 7140,
      "Ġnervously": 7141,
      "Ġfaded": 7142,
      "rey": 7143,
      "Ġlifting": 7144,
      "bird": 7145,
      "Ġscampered": 7146,
      "Ġrout": 7147,
      "Ġdrivers": 7148,
      "Ġhumans": 7149,
      "Very": 7150,
      "ippy": 7151,
      "lets": 7152,
      "Ġspat": 7153,
      "Ġexplo": 7154,
      "ĠTodd": 7155,
      "cake": 7156,
      "ĠOnly": 7157,
      "Ġappreciation": 7158,
      "Ġpours": 7159,
      "ĠJacky": 7160,
      "Ġfirefighter": 7161,
      "Ġrobber": 7162,
      "Ġdrawn": 7163,
      "Ġsqueak": 7164,
      "Ġthoughts": 7165,
      "Ġpennies": 7166,
      "Ġrespected": 7167,
      "Ġquarreling": 7168,
      "Ġpigeons": 7169,
      "Ġthroughout": 7170,
      "Ġtwinkled": 7171,
      "Ġleapt": 7172,
      "retty": 7173,
      "ĠAlong": 7174,
      "Ġocc": 7175,
      "Ġstacked": 7176,
      "ĠLove": 7177,
      "Br": 7178,
      "but": 7179,
      "Ġdresser": 7180,
      "ĠThatÃ¢": 7181,
      "rrr": 7182,
      "ĠFrosty": 7183,
      "Ġscient": 7184,
      "Ġfits": 7185,
      "Ġcoc": 7186,
      "ĠAsh": 7187,
      "ĠStay": 7188,
      "Ġmaster": 7189,
      "Ġscientist": 7190,
      "anwhile": 7191,
      "roken": 7192,
      "ĠMeg": 7193,
      "Listen": 7194,
      "ears": 7195,
      "Ġbravest": 7196,
      "Ġavocados": 7197,
      "Ġovercome": 7198,
      "Ġstrongest": 7199,
      "Ġmonths": 7200,
      "Ġelf": 7201,
      "Ġpolar": 7202,
      "now": 7203,
      "ĠBaa": 7204,
      "Ġplaytime": 7205,
      "Ġsan": 7206,
      "Ġnotes": 7207,
      "Ġgonna": 7208,
      "ĠMarie": 7209,
      "fire": 7210,
      "Ġnur": 7211,
      "Ġcertain": 7212,
      "ĠSadie": 7213,
      "ĠTake": 7214,
      "Ġmanag": 7215,
      "Ġwept": 7216,
      "ĠFrog": 7217,
      "Ġnood": 7218,
      "ĠSquirrel": 7219,
      "Ġmunch": 7220,
      "Ġspins": 7221,
      "Ġscored": 7222,
      "Ġcolder": 7223,
      "Ġechoed": 7224,
      "Mine": 7225,
      "bage": 7226,
      "Ġcosy": 7227,
      "Ġconvers": 7228,
      "eel": 7229,
      "Ġwakes": 7230,
      "ĠMabel": 7231,
      "ĠZara": 7232,
      "Ġgarbage": 7233,
      "Ġplayroom": 7234,
      "ĊĊ": 7235,
      "Ġdesigns": 7236,
      "Ġperforming": 7237,
      "plash": 7238,
      "eezes": 7239,
      "urious": 7240,
      "Ġpeck": 7241,
      "Ġprob": 7242,
      "Ġsank": 7243,
      "Ġflown": 7244,
      "ĠFido": 7245,
      "Ġtricycle": 7246,
      "ĠSimon": 7247,
      "ca": 7248,
      "Ġsweetest": 7249,
      "Ġprove": 7250,
      "Ġforgiving": 7251,
      "Ġprobably": 7252,
      "Ġmarshmallows": 7253,
      "Ġgest": 7254,
      "Ġbehaving": 7255,
      "Like": 7256,
      "cher": 7257,
      "iment": 7258,
      "ĠChe": 7259,
      "Ġpumpkins": 7260,
      "oke": 7261,
      "ĠBessie": 7262,
      "rying": 7263,
      "Ġexplorer": 7264,
      "Ġguide": 7265,
      "please": 7266,
      "ĠFarmer": 7267,
      "Ġsqueezing": 7268,
      "Ġrobots": 7269,
      "Ġsadd": 7270,
      "Ġtossed": 7271,
      "ÅĵIf": 7272,
      "Ġblinking": 7273,
      "ĠQuick": 7274,
      "bbling": 7275,
      "Ġcausing": 7276,
      "Ġbells": 7277,
      "undred": 7278,
      "...\"": 7279,
      "broken": 7280,
      "Ġshown": 7281,
      "Ġcobwebs": 7282,
      "ÅĵOkay": 7283,
      "espite": 7284,
      "ammy": 7285,
      "ĠMaddie": 7286,
      "Mimi": 7287,
      "Ġsquishy": 7288,
      "ĠLia": 7289,
      "Ġspices": 7290,
      "Ġhaird": 7291,
      "ĠFire": 7292,
      "Ġpassengers": 7293,
      "Ġcongratul": 7294,
      "Ġcraft": 7295,
      "Ġties": 7296,
      "fus": 7297,
      "Ġtighter": 7298,
      "Ġhealing": 7299,
      "Ġmate": 7300,
      "Ġangels": 7301,
      "?!\"": 7302,
      "Bet": 7303,
      "Ġyielded": 7304,
      "ading": 7305,
      "Ġreversed": 7306,
      "ilda": 7307,
      "Ġpound": 7308,
      "ĠMichael": 7309,
      "Ġaimed": 7310,
      "Follow": 7311,
      "Ġnapping": 7312,
      "Quick": 7313,
      "Even": 7314,
      "Ġgiggles": 7315,
      "ĠOwl": 7316,
      "upt": 7317,
      "Ġnearly": 7318,
      "Ġpays": 7319,
      "Ġoffic": 7320,
      "ĠLi": 7321,
      "Su": 7322,
      "Ġunw": 7323,
      "Ġdistract": 7324,
      "Ġkittens": 7325,
      "ĠWendy": 7326,
      "During": 7327,
      "ĠMouse": 7328,
      "Ġinstruments": 7329,
      "Ġwider": 7330,
      "Ġreun": 7331,
      "mates": 7332,
      "aying": 7333,
      "ĠAli": 7334,
      "Ġsewing": 7335,
      "alloween": 7336,
      "Ġtil": 7337,
      "Ġnuzz": 7338,
      "ĠUnder": 7339,
      "Ġdoorway": 7340,
      "Ġconflict": 7341,
      "Ġclues": 7342,
      "Ġappreciated": 7343,
      "Ġinj": 7344,
      "Ġpaintbrush": 7345,
      "ĠKaren": 7346,
      "found": 7347,
      "Ġbrushing": 7348,
      "Watch": 7349,
      "Ġ2": 7350,
      "Ġcoug": 7351,
      "Ġshoo": 7352,
      "Ros": 7353,
      "Ġgrandd": 7354,
      "Ġaction": 7355,
      "Ġyum": 7356,
      "Ġease": 7357,
      "Ġloading": 7358,
      "Ġbru": 7359,
      "Ġpassports": 7360,
      "ancy": 7361,
      "Ġcottage": 7362,
      "onies": 7363,
      "Alright": 7364,
      "ĠHalloween": 7365,
      "Ġpaths": 7366,
      "Ġheartbroken": 7367,
      "Ġais": 7368,
      "Ġblocked": 7369,
      "Ġmerma": 7370,
      "Ġlaying": 7371,
      "ĠAmelia": 7372,
      "Ġslipping": 7373,
      "ino": 7374,
      "Ġsweep": 7375,
      "Ġresults": 7376,
      "Ġanger": 7377,
      "Ġbelts": 7378,
      "Ġrepeating": 7379,
      "Ġpins": 7380,
      "Ġfigures": 7381,
      "ĠPatch": 7382,
      "Ġbits": 7383,
      "ĠTuna": 7384,
      "isc": 7385,
      "Ġevil": 7386,
      "Ġsoaking": 7387,
      "antastic": 7388,
      "idey": 7389,
      "ĠGina": 7390,
      "Ġmailed": 7391,
      "Ġwithin": 7392,
      "asty": 7393,
      "Ġtwisty": 7394,
      "Ġtwisting": 7395,
      "ĠWell": 7396,
      "Ġsuffered": 7397,
      "Ġstroll": 7398,
      "ĠBubba": 7399,
      "Ġtuck": 7400,
      "Ġconnected": 7401,
      "Tony": 7402,
      "Ġpuzzled": 7403,
      "âĤ¬,": 7404,
      "ĠRay": 7405,
      "Ġshovels": 7406,
      "Ġbuses": 7407,
      "Ġaccomplished": 7408,
      "Ġdamaged": 7409,
      "Ġnoodles": 7410,
      "Ġund": 7411,
      "ĠHolly": 7412,
      "Ġcrossing": 7413,
      "Ġhundred": 7414,
      "ighting": 7415,
      "Ġbreathing": 7416,
      "Ġsever": 7417,
      "Ġlicking": 7418,
      "Ġbehavior": 7419,
      "Ġroars": 7420,
      "Ġseveral": 7421,
      "Ġtying": 7422,
      "Ġshrug": 7423,
      "Ġresponsib": 7424,
      "Tw": 7425,
      "Ġbracelets": 7426,
      "Ġsurfing": 7427,
      "Ġsurrendered": 7428,
      "Ġrisks": 7429,
      "Ġfinishing": 7430,
      "Ġdespite": 7431,
      "Ġfleas": 7432,
      "Ġtoward": 7433,
      "ÅĵPlease": 7434,
      "Ġencount": 7435,
      "Ġsweat": 7436,
      "Kim": 7437,
      "Ġlending": 7438,
      "da": 7439,
      "Ġstreamers": 7440,
      "Ġhairdress": 7441,
      "Ġhumming": 7442,
      "Ġdefin": 7443,
      "Frank": 7444,
      "Vroom": 7445,
      "byes": 7446,
      "lves": 7447,
      "Ġsupported": 7448,
      "ĠHoney": 7449,
      "Ġshady": 7450,
      "Ġoysters": 7451,
      "Ġcleaner": 7452,
      "Ġquieter": 7453,
      "Ġawoke": 7454,
      "ĠDavey": 7455,
      "Abigail": 7456,
      "Ġgoodbyes": 7457,
      "Ġwhose": 7458,
      "Ġluckily": 7459,
      "ÅĵOf": 7460,
      "Whenever": 7461,
      "Ġignoring": 7462,
      "Ġstitches": 7463,
      "Ġrainy": 7464,
      "Surprise": 7465,
      "Take": 7466,
      "Ġrather": 7467,
      "Ġtablet": 7468,
      "isions": 7469,
      "Ġponies": 7470,
      "ĠFlopsy": 7471,
      "Ġedges": 7472,
      "Ġcuddles": 7473,
      "ĠIm": 7474,
      "Ġfantastic": 7475,
      "unity": 7476,
      "dding": 7477,
      "ecca": 7478,
      "erk": 7479,
      "Ġslither": 7480,
      "Ġcloudy": 7481,
      "Ġfrowns": 7482,
      "ening": 7483,
      "Ġhanding": 7484,
      "Ġfinal": 7485,
      "Ġsnowflakes": 7486,
      "ppies": 7487,
      "Ġsped": 7488,
      "Ġdrown": 7489,
      "agic": 7490,
      "Ġelbow": 7491,
      "Ġhairdresser": 7492,
      "Ġcotton": 7493,
      "Ġthorns": 7494,
      "ĠBirdy": 7495,
      "Ġdefinitely": 7496,
      "Ġcoral": 7497,
      "Ġrains": 7498,
      "iel": 7499,
      "ĠFreddie": 7500,
      "Ġgesture": 7501,
      "Ġkings": 7502,
      "Ġsmallest": 7503,
      "Ġsurv": 7504,
      "ĠGreen": 7505,
      "Ġsy": 7506,
      "ĠFuzzy": 7507,
      "Ġreminding": 7508,
      "Ġwisely": 7509,
      "ÅĵNow": 7510,
      "crow": 7511,
      "Ġbattle": 7512,
      "ĠBecause": 7513,
      "ĠUp": 7514,
      "Ġcorrectly": 7515,
      "Ġvines": 7516,
      "Ġdecisions": 7517,
      "Ġdriveway": 7518,
      "Ġsou": 7519,
      "athy": 7520,
      "onnie": 7521,
      "Ġpeeled": 7522,
      "Ġnewfound": 7523,
      "Ġsqueaked": 7524,
      "whe": 7525,
      "Ġchopped": 7526,
      "Ġsharks": 7527,
      "Ġprick": 7528,
      "Ġstudent": 7529,
      "Ġsnort": 7530,
      "Ġwarri": 7531,
      "Ġgrandson": 7532,
      "Jerry": 7533,
      "Ġsymbols": 7534,
      "Ġweeds": 7535,
      "Ġsimply": 7536,
      "Ġfishes": 7537,
      "ĠX": 7538,
      "hil": 7539,
      "cent": 7540,
      "ĠRuth": 7541,
      "Ġbandages": 7542,
      "abby": 7543,
      "Ġgranddaughter": 7544,
      "Ġwobble": 7545,
      "ĠMegan": 7546,
      "onse": 7547,
      "Ġresponse": 7548,
      "Ġnasty": 7549,
      "Ġexcept": 7550,
      "Ġexercises": 7551,
      "Ġstopping": 7552,
      "steps": 7553,
      "Ġtar": 7554,
      "ĠRocky": 7555,
      "Ġoccas": 7556,
      "anie": 7557,
      "Ġafar": 7558,
      "Ġbanged": 7559,
      "Ġdarl": 7560,
      "Ġni": 7561,
      "Ġinspired": 7562,
      "Ġdarlings": 7563,
      "father": 7564,
      "Ġtravels": 7565,
      "Ġtipped": 7566,
      "Ġdisturbing": 7567,
      "Ġfills": 7568,
      "Ġmasterp": 7569,
      "ĠAng": 7570,
      "Beep": 7571,
      "Ġlent": 7572,
      "David": 7573,
      "Ġflipped": 7574,
      "ÅĵHey": 7575,
      "Ġfootsteps": 7576,
      "elie": 7577,
      "ĠYesterday": 7578,
      "worm": 7579,
      "Ġpedaled": 7580,
      "line": 7581,
      "Ġbirdhouse": 7582,
      "Ġwindowsill": 7583,
      "Ġpurr": 7584,
      "Ġspits": 7585,
      "Ġtravelling": 7586,
      "ĠPippin": 7587,
      "Ġships": 7588,
      "Ġconvin": 7589,
      "Ġpresented": 7590,
      "ĠAlthough": 7591,
      "Ġscarecrow": 7592,
      "sol": 7593,
      "Ġaddress": 7594,
      "Ġpunishment": 7595,
      "Ġplanting": 7596,
      "Ġapologised": 7597,
      "citedly": 7598,
      "mered": 7599,
      "Ġchocolates": 7600,
      "Ġantic": 7601,
      "eeling": 7602,
      "ĠWelcome": 7603,
      "Ġforests": 7604,
      "Ġsurfboard": 7605,
      "ms": 7606,
      "Ġcongratulated": 7607,
      "ddie": 7608,
      "ĠSamantha": 7609,
      "Ġarranged": 7610,
      "Ġbelieving": 7611,
      "Ġreassured": 7612,
      "Ġtrotted": 7613,
      "Ġreunited": 7614,
      "ĠJojo": 7615,
      "Ġnodding": 7616,
      "Ġencouragement": 7617,
      "Ġcheers": 7618,
      "Ġlies": 7619,
      "Ġimages": 7620,
      "Ġpoppies": 7621,
      "Ġreapp": 7622,
      "Ġcampfire": 7623,
      "Ġsuits": 7624,
      "Ġbusiness": 7625,
      "Since": 7626,
      "Ġclerk": 7627,
      "ĠSpidey": 7628,
      "Ġtarget": 7629,
      "ooky": 7630,
      "Ġmarve": 7631,
      "Ġsails": 7632,
      "Ġmagnif": 7633,
      "issa": 7634,
      "perate": 7635,
      "utter": 7636,
      "ĠAlly": 7637,
      "Ġofficers": 7638,
      "Ġterrified": 7639,
      "Ġbackpacks": 7640,
      "manda": 7641,
      "Ġgrip": 7642,
      "Ġcovering": 7643,
      "Ġyel": 7644,
      "Ġknots": 7645,
      "Ġfocus": 7646,
      "iza": 7647,
      "Ġactivity": 7648,
      "inkle": 7649,
      "Ġyelped": 7650,
      "Ġsurprising": 7651,
      "Ġwrinkled": 7652,
      "Ġsmelling": 7653,
      "Ġexpert": 7654,
      "Ġmood": 7655,
      "Ġmasterpiece": 7656,
      "Mad": 7657,
      "Ġdep": 7658,
      "ĠFighting": 7659,
      "otte": 7660,
      "Ġchanges": 7661,
      "Ġconcert": 7662,
      "Ġchilly": 7663,
      "Ġspills": 7664,
      "Ġspeeding": 7665,
      "ider": 7666,
      "Ġtesting": 7667,
      "ĠSnowman": 7668,
      "Ġtasting": 7669,
      "Ġbraver": 7670,
      "Ġpleaded": 7671,
      "Ġsniffing": 7672,
      "artled": 7673,
      "Ġcomforting": 7674,
      "Ġdelayed": 7675,
      "Ġgears": 7676,
      "Hannah": 7677,
      "ĠOkay": 7678,
      "Ġcalmly": 7679,
      "we": 7680,
      "ats": 7681,
      "acle": 7682,
      "acles": 7683,
      "ĠRain": 7684,
      "asha": 7685,
      "Ġlabels": 7686,
      "ĠLouise": 7687,
      "arlotte": 7688,
      "Ġmermaid": 7689,
      "Ġsuggestion": 7690,
      "Ġaware": 7691,
      "ĠAny": 7692,
      "Ġdiscussing": 7693,
      "Ġstumble": 7694,
      "Ġjars": 7695,
      "Ġspies": 7696,
      "Ġbelongings": 7697,
      "Ġmischie": 7698,
      "Ġworrying": 7699,
      "Ġmagazines": 7700,
      "Ġbothering": 7701,
      "flies": 7702,
      "Ġcrowns": 7703,
      "Ġartwork": 7704,
      "Poppy": 7705,
      "Ġalthough": 7706,
      "Ġunderstands": 7707,
      "Ġdisplayed": 7708,
      "Ġmischievous": 7709,
      "ails": 7710,
      "Ġpuck": 7711,
      "ĠTry": 7712,
      "Ġadmiration": 7713,
      "Ġefforts": 7714,
      "screen": 7715,
      "Ġburying": 7716,
      "Ted": 7717,
      "Ġheight": 7718,
      "Ġfoxes": 7719,
      "emma": 7720,
      "Ġunfortunately": 7721,
      "pen": 7722,
      "Ġsav": 7723,
      "Ġrefuse": 7724,
      "ĠSofia": 7725,
      "Ġseller": 7726,
      "ĠEva": 7727,
      "Ġhoo": 7728,
      "Ġbaskets": 7729,
      "Ġtoolbox": 7730,
      "rier": 7731,
      "Ġbuddy": 7732,
      "ighing": 7733,
      "Ġbitten": 7734,
      "ĠWil": 7735,
      "Ġexperienced": 7736,
      "Ġdecl": 7737,
      "Ġbless": 7738,
      "inted": 7739,
      "Ġque": 7740,
      "vroom": 7741,
      "Ġdragonfly": 7742,
      "Ġvehicles": 7743,
      "wise": 7744,
      "ĠWally": 7745,
      "bell": 7746,
      "what": 7747,
      "Ġpackages": 7748,
      "ĠFiona": 7749,
      "Ġdisc": 7750,
      "Ġsolving": 7751,
      "Ġdump": 7752,
      "ibbit": 7753,
      "ugging": 7754,
      "Ġpandas": 7755,
      "True": 7756,
      "ris": 7757,
      "Ġannoyed": 7758,
      "Ġtumbled": 7759,
      "Ġmomma": 7760,
      "Ġmemb": 7761,
      "ipes": 7762,
      "aturday": 7763,
      "Ġmembers": 7764,
      "Steve": 7765,
      "Ġseashells": 7766,
      "ĠKaty": 7767,
      "Ġfires": 7768,
      "ÅĵThe": 7769,
      "Ġposit": 7770,
      "Ġwarmly": 7771,
      "ĠSaturday": 7772,
      "Ġwealth": 7773,
      "Ġnibbled": 7774,
      "Ġsunscreen": 7775,
      "Penny": 7776,
      "aint": 7777,
      "Ġpeas": 7778,
      "Ġtreated": 7779,
      "Ġtroubles": 7780,
      "Ġsquaw": 7781,
      "Ġrotting": 7782,
      "ĠPippa": 7783,
      "Ġscent": 7784,
      "ĠFroggy": 7785,
      "Ġmaterial": 7786,
      "ÅĵSure": 7787,
      "Meanwhile": 7788,
      "Any": 7789,
      "Ġconqu": 7790,
      "Ġstomp": 7791,
      "Ġgazing": 7792,
      "Ġcoach": 7793,
      "ĠDory": 7794,
      "Ġinsisting": 7795,
      "Chloe": 7796,
      "Ġuntied": 7797,
      "Dear": 7798,
      "ĠPen": 7799,
      "Ġdiso": 7800,
      "Ġprayers": 7801,
      "ĠOther": 7802,
      "Ġenviron": 7803,
      "Ġparted": 7804,
      "Ġconversation": 7805,
      "Quack": 7806,
      "Get": 7807,
      "aver": 7808,
      "ĠPepper": 7809,
      "Ġcollap": 7810,
      "Ġencountered": 7811,
      "Ġjoins": 7812,
      "Ġloops": 7813,
      "ĠDuck": 7814,
      "Ġraces": 7815,
      "Ġsewed": 7816,
      "Ġsill": 7817,
      "Ġteachers": 7818,
      "ĠAuntie": 7819,
      "Ġenvironment": 7820,
      "Ġscurrying": 7821,
      "attered": 7822,
      "Ġwhispering": 7823,
      "Ġjoked": 7824,
      "Ġargum": 7825,
      "Ġpurpose": 7826,
      "ĠJonny": 7827,
      "Ġtilted": 7828,
      "Ġstored": 7829,
      "Goodnight": 7830,
      "Ġorders": 7831,
      "Ġloses": 7832,
      "Ġexch": 7833,
      "ortunately": 7834,
      "Ġhoops": 7835,
      "ĠDog": 7836,
      "Ġgenie": 7837,
      "Ġcowboy": 7838,
      "ĠFlo": 7839,
      "ppa": 7840,
      "Ġsheets": 7841,
      "Ġspooky": 7842,
      "Ġtweet": 7843,
      "Ġtoss": 7844,
      "order": 7845,
      "Ġpermitted": 7846,
      "airy": 7847,
      "Ġquarre": 7848,
      "aven": 7849,
      "eedy": 7850,
      "uel": 7851,
      "Ġaim": 7852,
      "ongo": 7853,
      "Ġdiamonds": 7854,
      "Bunny": 7855,
      "Joy": 7856,
      "Ġscram": 7857,
      "Ġtype": 7858,
      "iscuit": 7859,
      "Ġpupils": 7860,
      "Ġanticip": 7861,
      "Ġglittering": 7862,
      "Rachel": 7863,
      "Ġtrans": 7864,
      "Ġqueens": 7865,
      "Ġturtles": 7866,
      "illiam": 7867,
      "Ġbeaming": 7868,
      "Ġnearest": 7869,
      "ĠDespite": 7870,
      "Ġends": 7871,
      "Thomas": 7872,
      "ĠSnowball": 7873,
      "Ġtubes": 7874,
      "Ġmaker": 7875,
      "igger": 7876,
      "Jamie": 7877,
      "Ġservant": 7878,
      "ĠMaddy": 7879,
      "ÅĵSee": 7880,
      "Ke": 7881,
      "ĠHope": 7882,
      "Ġwhimp": 7883,
      "Ġdonkey": 7884,
      "Ġvisitors": 7885,
      "Ġfilms": 7886,
      "Jess": 7887,
      "Ġspells": 7888,
      "Ġopport": 7889,
      "Ġgap": 7890,
      "Ġuntie": 7891,
      "ĠBounce": 7892,
      "Ġcleared": 7893,
      "Ġfins": 7894,
      "Ġstroke": 7895,
      "Ġrin": 7896,
      "Mat": 7897,
      "Ġtapping": 7898,
      "Ġoppos": 7899,
      "Ġwasting": 7900,
      "Ġcustomers": 7901,
      "Ġnurses": 7902,
      "usty": 7903,
      "Ġpriz": 7904,
      "Ġswo": 7905,
      "Ġshall": 7906,
      "Ġhunters": 7907,
      "Ġger": 7908,
      "ĠKevin": 7909,
      "Ġconvinced": 7910,
      "Ġwounds": 7911,
      "Ġswollen": 7912,
      "Ġgoats": 7913,
      "Ġsweaty": 7914,
      "Ġdressing": 7915,
      "Ġslowed": 7916,
      "ĠMaisy": 7917,
      "Ġdeclared": 7918,
      "Ġdot": 7919,
      "Ġexamining": 7920,
      "orter": 7921,
      "elope": 7922,
      "ĠBow": 7923,
      "Ġopposite": 7924,
      "ĠMina": 7925,
      "Ġcharacters": 7926,
      "ilities": 7927,
      "Ġfailed": 7928,
      "ĠQuackers": 7929,
      "Ġtidied": 7930,
      "Ġtransf": 7931,
      "Ġgrandfather": 7932,
      "acy": 7933,
      "Ġwarrior": 7934,
      "Ġforgiveness": 7935,
      "Ġsternly": 7936,
      "Ġgoodies": 7937,
      "Ġguessing": 7938,
      "Ġlipstick": 7939,
      "Ġpeep": 7940,
      "Ġyoungest": 7941,
      "Ġscratching": 7942,
      "Leave": 7943,
      "Ġseagulls": 7944,
      "ĠSte": 7945,
      "mies": 7946,
      "rest": 7947,
      "Ġinchworm": 7948,
      "Ġbeeped": 7949,
      "empt": 7950,
      "Ġmeowing": 7951,
      "rian": 7952,
      "Stay": 7953,
      "Ġrescuing": 7954,
      "Ġthanking": 7955,
      "Ġquestioned": 7956,
      "ĠSplash": 7957,
      "ĠHold": 7958,
      "Ġattempt": 7959,
      "Ġscrambled": 7960,
      "rie": 7961,
      "ĠYouÃ¢": 7962,
      "Ġgrat": 7963,
      "Ġdripping": 7964,
      "Ġbou": 7965,
      "Ġtires": 7966,
      "Ġbouqu": 7967,
      "Ġactive": 7968,
      "Ġstall": 7969,
      "Ġform": 7970,
      "Ġanticipation": 7971,
      "rily": 7972,
      "Ġpicnics": 7973,
      "Ġnibble": 7974,
      "ĠElly": 7975,
      "Always": 7976,
      "Ġaisle": 7977,
      "ĠSw": 7978,
      "Ġblond": 7979,
      "Ġfloors": 7980,
      "Ġresponded": 7981,
      "Ġresponsibility": 7982,
      "Adam": 7983,
      "Ġshin": 7984,
      "Ġsmashed": 7985,
      "Ġattacked": 7986,
      "Ġmatey": 7987,
      "Ġforce": 7988,
      "ivia": 7989,
      "Ġexplains": 7990,
      "Am": 7991,
      "ĠKelly": 7992,
      "Ġknocking": 7993,
      "Ġemerged": 7994,
      "Tweetie": 7995,
      "Ġobeyed": 7996,
      "Ġdiscoveries": 7997,
      "Ġgratitude": 7998,
      "Ġting": 7999,
      "Ġinter": 8000,
      "Ġjud": 8001,
      "Ġvibr": 8002,
      "cie": 8003,
      "Ġrely": 8004,
      "ĠMomma": 8005,
      "Ġrays": 8006,
      "Ġzooms": 8007,
      "Ġdecoration": 8008,
      "Ġmanners": 8009,
      "Ġcharge": 8010,
      "Ġclassmates": 8011,
      "Ġsprout": 8012,
      "Ġsens": 8013,
      "Ġsnug": 8014,
      "Ġvisits": 8015,
      "Ġsigning": 8016,
      "innie": 8017,
      "Ġspy": 8018,
      "ÅĵWho": 8019,
      "Ġaeroplanes": 8020,
      "Ġsoot": 8021,
      "ĠStan": 8022,
      "ĠgirlÃ¢": 8023,
      "Ġtwists": 8024,
      "Ġsurvive": 8025,
      "ebecca": 8026,
      "ĠJaney": 8027,
      "Ġvegg": 8028,
      "Ġinstantly": 8029,
      "munk": 8030,
      "anda": 8031,
      "ĠElle": 8032,
      "yl": 8033,
      "ippers": 8034,
      "Ġloc": 8035,
      "Ġwiggly": 8036,
      "Ġseals": 8037,
      "Ġself": 8038,
      "Ġbreaths": 8039,
      "Ġunwra": 8040,
      "Ġramp": 8041,
      "Ġrumbling": 8042,
      "ĠLion": 8043,
      "hind": 8044,
      "act": 8045,
      "Ġbuckled": 8046,
      "Ġbrightest": 8047,
      "ĠBecky": 8048,
      "ĠMae": 8049,
      "Ġhen": 8050,
      "ĠLuc": 8051,
      "Ġshrunk": 8052,
      "Rosie": 8053,
      "Ġmunched": 8054,
      "Ġbond": 8055,
      "Ġbeeh": 8056,
      "Ġincreasing": 8057,
      "sm": 8058,
      "Ġshimmering": 8059,
      "athan": 8060,
      "Ġpurrs": 8061,
      "Ġmanager": 8062,
      "idence": 8063,
      "Ġdoorbell": 8064,
      "Ġflaps": 8065,
      "Ġearned": 8066,
      "ĠJax": 8067,
      "Ġchatter": 8068,
      "Beth": 8069,
      "gain": 8070,
      "Bang": 8071,
      "oc": 8072,
      "ooking": 8073,
      "ĠWoo": 8074,
      "ĠJoan": 8075,
      "ĠFrankie": 8076,
      "ching": 8077,
      "Ġmovements": 8078,
      "Ġlowered": 8079,
      "udged": 8080,
      "Ġswaying": 8081,
      "iens": 8082,
      "Someone": 8083,
      "ittered": 8084,
      "Ġaliens": 8085,
      "Ġhonking": 8086,
      "Ġcracks": 8087,
      "Ġargument": 8088,
      "ssss": 8089,
      "Ġchipmunk": 8090,
      "Ġdisobey": 8091,
      "inger": 8092,
      "Ġwhoever": 8093,
      "Ġwinding": 8094,
      "romise": 8095,
      "ĠSpeedy": 8096,
      "ĠAr": 8097,
      "Ġannounced": 8098,
      "ummies": 8099,
      "Ġprevented": 8100,
      "Ġbeaver": 8101,
      "ÅĵGood": 8102,
      "Ġrowed": 8103,
      "Anne": 8104,
      "its": 8105,
      "Ġswitched": 8106,
      "Ġbathing": 8107,
      "lied": 8108,
      "Ġmosquitoes": 8109,
      "Ġtaped": 8110,
      "ĠTaking": 8111,
      "storm": 8112,
      "ĠStitch": 8113,
      "belle": 8114,
      "Ġposes": 8115,
      "oscope": 8116,
      "Ġoffering": 8117,
      "Ġswap": 8118,
      "Ġnuzzled": 8119,
      "Claire": 8120,
      "Ġcons": 8121,
      "Ġprickly": 8122,
      "aret": 8123,
      "flowers": 8124,
      "Ġswayed": 8125,
      "Red": 8126,
      "Ġsteth": 8127,
      "Ġflips": 8128,
      "ĠRudy": 8129,
      "ĠDaniel": 8130,
      "Julie": 8131,
      "Ġdestroying": 8132,
      "Ġlapt": 8133,
      "Ġdesigning": 8134,
      "Ġminds": 8135,
      "Ġcares": 8136,
      "bee": 8137,
      "Ġbadger": 8138,
      "LetÃ¢": 8139,
      "Ġjobs": 8140,
      "Ġdodged": 8141,
      "Ġglimmering": 8142,
      "Ġrats": 8143,
      "Ġcrawls": 8144,
      "Ġwhistles": 8145,
      "lo": 8146,
      "Ġsmelt": 8147,
      "ĠEddie": 8148,
      "Ġcrops": 8149,
      "rink": 8150,
      "Ġbeautifully": 8151,
      "Ġobserving": 8152,
      "Ġdangers": 8153,
      "ĠRoger": 8154,
      "yd": 8155,
      "Ġbeating": 8156,
      "Ġshines": 8157,
      "Ġexploded": 8158,
      "Ġknives": 8159,
      "Ġmillion": 8160,
      "Ġscolds": 8161,
      "Ġcheckout": 8162,
      "Ġscooters": 8163,
      "Ġstamped": 8164,
      "Ġsnaps": 8165,
      "ĠSpring": 8166,
      "angle": 8167,
      "Ġcustomer": 8168,
      "Ġgenerosity": 8169,
      "lph": 8170,
      "Ġgroan": 8171,
      "ĠPhil": 8172,
      "Ġdeed": 8173,
      "Ġlanguages": 8174,
      "boards": 8175,
      "Ġgerms": 8176,
      "ean": 8177,
      "Josh": 8178,
      "Ġrecorder": 8179,
      "Ġhike": 8180,
      "Ġhonesty": 8181,
      "Ġtummies": 8182,
      "Ġstethoscope": 8183,
      "oor": 8184,
      "Ġrobbers": 8185,
      "Ġclosing": 8186,
      "Ġpaddling": 8187,
      "Ġcocoon": 8188,
      "lt": 8189,
      "Ġdrowned": 8190,
      "Ġhaven": 8191
    },
    "merges": [
      [
        "h",
        "e"
      ],
      [
        "Ġ",
        "t"
      ],
      [
        "Ġ",
        "a"
      ],
      [
        "Ġ",
        "s"
      ],
      [
        "Ġ",
        "w"
      ],
      [
        "n",
        "d"
      ],
      [
        "Ġt",
        "he"
      ],
      [
        "e",
        "d"
      ],
      [
        "Ġa",
        "nd"
      ],
      [
        "Ġt",
        "o"
      ],
      [
        "Ġ",
        "b"
      ],
      [
        "i",
        "n"
      ],
      [
        "Ġ",
        "h"
      ],
      [
        "Ġw",
        "a"
      ],
      [
        "r",
        "e"
      ],
      [
        "o",
        "u"
      ],
      [
        "Ġ",
        "f"
      ],
      [
        "i",
        "t"
      ],
      [
        "Ġ",
        "l"
      ],
      [
        "Ġ",
        "c"
      ],
      [
        "Ġ",
        "d"
      ],
      [
        "e",
        "r"
      ],
      [
        "Ġ",
        "he"
      ],
      [
        "Ġ",
        "m"
      ],
      [
        "Ġ",
        "p"
      ],
      [
        "Ġwa",
        "s"
      ],
      [
        "Ġ",
        "T"
      ],
      [
        "o",
        "m"
      ],
      [
        "Ġ",
        "o"
      ],
      [
        "a",
        "y"
      ],
      [
        "a",
        "r"
      ],
      [
        "i",
        "s"
      ],
      [
        "in",
        "g"
      ],
      [
        "i",
        "l"
      ],
      [
        "Ġ",
        "g"
      ],
      [
        "i",
        "d"
      ],
      [
        "a",
        "t"
      ],
      [
        "e",
        "n"
      ],
      [
        "Ġ",
        "n"
      ],
      [
        "Ġs",
        "a"
      ],
      [
        "Ġh",
        "a"
      ],
      [
        "Ġ",
        "S"
      ],
      [
        "ĠT",
        "he"
      ],
      [
        "a",
        "n"
      ],
      [
        "i",
        "m"
      ],
      [
        "o",
        "r"
      ],
      [
        "o",
        "n"
      ],
      [
        "Ġ",
        "it"
      ],
      [
        "Ġt",
        "h"
      ],
      [
        "l",
        "l"
      ],
      [
        "l",
        "e"
      ],
      [
        "Ġ",
        "H"
      ],
      [
        "Ġhe",
        "r"
      ],
      [
        "o",
        "t"
      ],
      [
        "e",
        "t"
      ],
      [
        "i",
        "r"
      ],
      [
        "ĠS",
        "he"
      ],
      [
        "e",
        "s"
      ],
      [
        "ĠH",
        "e"
      ],
      [
        "Ġ",
        "in"
      ],
      [
        "v",
        "er"
      ],
      [
        "u",
        "t"
      ],
      [
        "o",
        "w"
      ],
      [
        "ĠThe",
        "y"
      ],
      [
        "c",
        "k"
      ],
      [
        "Ġ",
        "e"
      ],
      [
        "Ġ",
        "u"
      ],
      [
        "l",
        "d"
      ],
      [
        "Ġ",
        "y"
      ],
      [
        "o",
        "o"
      ],
      [
        "Ġsa",
        "id"
      ],
      [
        "Ġ",
        "\""
      ],
      [
        "i",
        "g"
      ],
      [
        "il",
        "y"
      ],
      [
        "Ġ",
        "r"
      ],
      [
        "Ġb",
        "e"
      ],
      [
        "a",
        "m"
      ],
      [
        "Ġs",
        "t"
      ],
      [
        "Ġ",
        "I"
      ],
      [
        "c",
        "e"
      ],
      [
        "k",
        "e"
      ],
      [
        "Ġs",
        "he"
      ],
      [
        "v",
        "e"
      ],
      [
        "p",
        "p"
      ],
      [
        "it",
        "h"
      ],
      [
        "Ġw",
        "ith"
      ],
      [
        "Ġ",
        "L"
      ],
      [
        "O",
        "n"
      ],
      [
        "Ġo",
        "n"
      ],
      [
        "Ġy",
        "ou"
      ],
      [
        "Ġo",
        "f"
      ],
      [
        "k",
        "ed"
      ],
      [
        "r",
        "i"
      ],
      [
        "Ġs",
        "o"
      ],
      [
        "n",
        "t"
      ],
      [
        "Ġh",
        "is"
      ],
      [
        "Ġp",
        "l"
      ],
      [
        "a",
        "d"
      ],
      [
        "ver",
        "y"
      ],
      [
        "Ġd",
        "ay"
      ],
      [
        "Ġth",
        "at"
      ],
      [
        "ĠL",
        "ily"
      ],
      [
        "Ġu",
        "p"
      ],
      [
        "Ġ",
        "On"
      ],
      [
        "Ġpl",
        "ay"
      ],
      [
        "Ġha",
        "d"
      ],
      [
        "s",
        "t"
      ],
      [
        "Ġthe",
        "y"
      ],
      [
        "Ġw",
        "e"
      ],
      [
        "Ġm",
        "om"
      ],
      [
        "Ġ",
        "B"
      ],
      [
        "Ġf",
        "or"
      ],
      [
        "e",
        "l"
      ],
      [
        "u",
        "n"
      ],
      [
        "ou",
        "ld"
      ],
      [
        "'",
        "s"
      ],
      [
        "m",
        "y"
      ],
      [
        "T",
        "he"
      ],
      [
        "Ġl",
        "i"
      ],
      [
        "c",
        "h"
      ],
      [
        "en",
        "t"
      ],
      [
        "Ġha",
        "pp"
      ],
      [
        "Ġwa",
        "nt"
      ],
      [
        "it",
        "t"
      ],
      [
        "Ġs",
        "h"
      ],
      [
        "ou",
        "t"
      ],
      [
        "he",
        "r"
      ],
      [
        "Ġd",
        "o"
      ],
      [
        "l",
        "y"
      ],
      [
        "Ġn",
        "ot"
      ],
      [
        "om",
        "e"
      ],
      [
        "s",
        "e"
      ],
      [
        "Ġ",
        "very"
      ],
      [
        "ou",
        "nd"
      ],
      [
        "e",
        "nd"
      ],
      [
        "a",
        "ll"
      ],
      [
        "Ġw",
        "h"
      ],
      [
        "im",
        "e"
      ],
      [
        "itt",
        "le"
      ],
      [
        "Ġ",
        "M"
      ],
      [
        "Ġ",
        "k"
      ],
      [
        "Ġt",
        "ime"
      ],
      [
        "Ġl",
        "ittle"
      ],
      [
        "a",
        "l"
      ],
      [
        "Ġthe",
        "re"
      ],
      [
        "Ġn",
        "e"
      ],
      [
        "h",
        "t"
      ],
      [
        "Ġ",
        "re"
      ],
      [
        "Ġhapp",
        "y"
      ],
      [
        "Ġs",
        "m"
      ],
      [
        "Ġb",
        "ig"
      ],
      [
        "Ġ",
        "is"
      ],
      [
        "ĠI",
        "t"
      ],
      [
        "Ġ",
        "Ċ"
      ],
      [
        "Ġb",
        "ut"
      ],
      [
        "a",
        "ck"
      ],
      [
        "Ġa",
        "n"
      ],
      [
        "Ġsa",
        "w"
      ],
      [
        "ri",
        "end"
      ],
      [
        ".",
        "\""
      ],
      [
        "Ġf",
        "riend"
      ],
      [
        "r",
        "y"
      ],
      [
        "Ġa",
        "s"
      ],
      [
        "r",
        "a"
      ],
      [
        "id",
        "e"
      ],
      [
        "a",
        "ke"
      ],
      [
        "'",
        "t"
      ],
      [
        "!",
        "\""
      ],
      [
        "u",
        "g"
      ],
      [
        "Ġl",
        "oo"
      ],
      [
        "v",
        "ed"
      ],
      [
        "t",
        "er"
      ],
      [
        "Ġwe",
        "re"
      ],
      [
        "o",
        "re"
      ],
      [
        "Ġl",
        "o"
      ],
      [
        "ĠOn",
        "ce"
      ],
      [
        "e",
        "c"
      ],
      [
        "Ġh",
        "im"
      ],
      [
        "Ġto",
        "o"
      ],
      [
        "Ġg",
        "o"
      ],
      [
        "Ġb",
        "o"
      ],
      [
        "Ġs",
        "e"
      ],
      [
        "ĠT",
        "im"
      ],
      [
        "ir",
        "l"
      ],
      [
        "Ġa",
        "re"
      ],
      [
        "Ġ",
        "j"
      ],
      [
        "ar",
        "d"
      ],
      [
        "Ġwant",
        "ed"
      ],
      [
        "il",
        "l"
      ],
      [
        "Ġg",
        "irl"
      ],
      [
        "Ġup",
        "on"
      ],
      [
        "Ġthe",
        "m"
      ],
      [
        "Ġ",
        "out"
      ],
      [
        "Ġ",
        "A"
      ],
      [
        "Ġa",
        "t"
      ],
      [
        "u",
        "r"
      ],
      [
        "i",
        "nd"
      ],
      [
        "Ġthe",
        "ir"
      ],
      [
        "f",
        "u"
      ],
      [
        "Ġs",
        "p"
      ],
      [
        "w",
        "ay"
      ],
      [
        "Ġsm",
        "il"
      ],
      [
        "Ġd",
        "id"
      ],
      [
        "Ġc",
        "ould"
      ],
      [
        "he",
        "n"
      ],
      [
        "Ġha",
        "ve"
      ],
      [
        "a",
        "in"
      ],
      [
        "ar",
        "t"
      ],
      [
        "Ġe",
        "x"
      ],
      [
        "Ġ",
        "J"
      ],
      [
        "he",
        "d"
      ],
      [
        "r",
        "om"
      ],
      [
        "Ġw",
        "ent"
      ],
      [
        "Ġa",
        "r"
      ],
      [
        "i",
        "c"
      ],
      [
        "ĠB",
        "en"
      ],
      [
        "Ġc",
        "an"
      ],
      [
        "l",
        "p"
      ],
      [
        "fu",
        "l"
      ],
      [
        "oo",
        "d"
      ],
      [
        "?",
        "\""
      ],
      [
        "h",
        "ing"
      ],
      [
        "Ġfriend",
        "s"
      ],
      [
        "ĠT",
        "om"
      ],
      [
        "Ġn",
        "am"
      ],
      [
        "ig",
        "ht"
      ],
      [
        "Ġa",
        "ll"
      ],
      [
        "Ġhe",
        "lp"
      ],
      [
        "Ġk",
        "n"
      ],
      [
        "u",
        "m"
      ],
      [
        "ĠOn",
        "e"
      ],
      [
        "on",
        "e"
      ],
      [
        "ar",
        "k"
      ],
      [
        "Ġb",
        "ack"
      ],
      [
        "Ġs",
        "ay"
      ],
      [
        "Y",
        "ou"
      ],
      [
        "Ġf",
        "un"
      ],
      [
        "Ġc",
        "l"
      ],
      [
        "a",
        "re"
      ],
      [
        "Ġn",
        "o"
      ],
      [
        "Ġl",
        "e"
      ],
      [
        "o",
        "p"
      ],
      [
        "Ġsmil",
        "ed"
      ],
      [
        "Ġs",
        "c"
      ],
      [
        "Ġnam",
        "ed"
      ],
      [
        "Ġa",
        "l"
      ],
      [
        "ou",
        "g"
      ],
      [
        "Ġlo",
        "ved"
      ],
      [
        "s",
        "ide"
      ],
      [
        "el",
        "t"
      ],
      [
        "Ġm",
        "an"
      ],
      [
        "Ġas",
        "ked"
      ],
      [
        "i",
        "ck"
      ],
      [
        "Ġto",
        "y"
      ],
      [
        "Ġli",
        "ke"
      ],
      [
        "Ġf",
        "e"
      ],
      [
        "Ġf",
        "elt"
      ],
      [
        "Ġloo",
        "ked"
      ],
      [
        "Ġs",
        "ome"
      ],
      [
        "Ġar",
        "ound"
      ],
      [
        "Ġse",
        "e"
      ],
      [
        "Ġm",
        "e"
      ],
      [
        "am",
        "e"
      ],
      [
        "om",
        "et"
      ],
      [
        "Ġ",
        "W"
      ],
      [
        "Ġr",
        "o"
      ],
      [
        "Ġb",
        "r"
      ],
      [
        "u",
        "re"
      ],
      [
        "ĠTim",
        "my"
      ],
      [
        "Ġb",
        "ir"
      ],
      [
        "g",
        "et"
      ],
      [
        "i",
        "ce"
      ],
      [
        "Ġbo",
        "y"
      ],
      [
        "Ġw",
        "ould"
      ],
      [
        "Ġst",
        "art"
      ],
      [
        "on",
        "g"
      ],
      [
        "Ã",
        "¢"
      ],
      [
        "â",
        "Ĥ"
      ],
      [
        "âĤ",
        "¬"
      ],
      [
        "s",
        "s"
      ],
      [
        "Ġbir",
        "d"
      ],
      [
        "Ġs",
        "omet"
      ],
      [
        "Ġf",
        "a"
      ],
      [
        "d",
        "d"
      ],
      [
        "ing",
        "s"
      ],
      [
        "Ġa",
        "g"
      ],
      [
        "Ġw",
        "or"
      ],
      [
        "Ġwh",
        "at"
      ],
      [
        "ad",
        "e"
      ],
      [
        "Ġm",
        "ake"
      ],
      [
        "k",
        "ing"
      ],
      [
        ",",
        "\""
      ],
      [
        "i",
        "e"
      ],
      [
        "ĠB",
        "ut"
      ],
      [
        "ow",
        "n"
      ],
      [
        "Ġt",
        "re"
      ],
      [
        "Ġr",
        "an"
      ],
      [
        "get",
        "her"
      ],
      [
        "Ġ",
        "You"
      ],
      [
        "Ġa",
        "way"
      ],
      [
        "a",
        "g"
      ],
      [
        "ar",
        "ed"
      ],
      [
        "Ġsay",
        "s"
      ],
      [
        "Ġstart",
        "ed"
      ],
      [
        "ou",
        "d"
      ],
      [
        "i",
        "f"
      ],
      [
        "Ġm",
        "ade"
      ],
      [
        "Ġc",
        "ar"
      ],
      [
        "Ġsomet",
        "hing"
      ],
      [
        "Ġto",
        "gether"
      ],
      [
        "it",
        "ed"
      ],
      [
        "t",
        "her"
      ],
      [
        "Ġp",
        "ark"
      ],
      [
        "Ġc",
        "o"
      ],
      [
        "Ġsa",
        "d"
      ],
      [
        "Ġo",
        "ther"
      ],
      [
        "Ġne",
        "w"
      ],
      [
        "Ġex",
        "c"
      ],
      [
        "Ġp",
        "ut"
      ],
      [
        "Ġf",
        "rom"
      ],
      [
        "Ġp",
        "r"
      ],
      [
        "e",
        "ll"
      ],
      [
        "Ġl",
        "a"
      ],
      [
        "Ġh",
        "ug"
      ],
      [
        "b",
        "le"
      ],
      [
        "Ġm",
        "u"
      ],
      [
        "oo",
        "k"
      ],
      [
        "a",
        "ch"
      ],
      [
        "Ġag",
        "ain"
      ],
      [
        "Ġh",
        "ome"
      ],
      [
        "Ġw",
        "hen"
      ],
      [
        "Ġg",
        "ood"
      ],
      [
        "h",
        "at"
      ],
      [
        "e",
        "p"
      ],
      [
        "Ġwh",
        "o"
      ],
      [
        "es",
        "t"
      ],
      [
        "ri",
        "ed"
      ],
      [
        "Ġf",
        "ound"
      ],
      [
        "Ġf",
        "l"
      ],
      [
        "Ġthe",
        "n"
      ],
      [
        "L",
        "ily"
      ],
      [
        "Ġc",
        "h"
      ],
      [
        "Ġd",
        "ec"
      ],
      [
        "pp",
        "ed"
      ],
      [
        "Ġwa",
        "l"
      ],
      [
        "a",
        "s"
      ],
      [
        "Ġg",
        "et"
      ],
      [
        "q",
        "u"
      ],
      [
        "Ġplay",
        "ing"
      ],
      [
        "oug",
        "ht"
      ],
      [
        "On",
        "e"
      ],
      [
        "p",
        "l"
      ],
      [
        "Ġ",
        "E"
      ],
      [
        "all",
        "y"
      ],
      [
        "Ġs",
        "w"
      ],
      [
        "ou",
        "s"
      ],
      [
        "n",
        "n"
      ],
      [
        "Ġth",
        "ings"
      ],
      [
        "Ġexc",
        "ited"
      ],
      [
        "Ġli",
        "ked"
      ],
      [
        "Ġg",
        "ot"
      ],
      [
        "u",
        "ck"
      ],
      [
        "r",
        "o"
      ],
      [
        "id",
        "ed"
      ],
      [
        "Ġdec",
        "ided"
      ],
      [
        "Ġb",
        "l"
      ],
      [
        "ĠM",
        "om"
      ],
      [
        "a",
        "ve"
      ],
      [
        "Ġ",
        "D"
      ],
      [
        "Ġc",
        "ame"
      ],
      [
        "Ġe",
        "very"
      ],
      [
        "ar",
        "a"
      ],
      [
        "Ġyou",
        "r"
      ],
      [
        "a",
        "x"
      ],
      [
        "Ġ",
        "v"
      ],
      [
        "Ġsc",
        "ared"
      ],
      [
        "u",
        "st"
      ],
      [
        "Ġon",
        "e"
      ],
      [
        "Ġdo",
        "g"
      ],
      [
        "Ġd",
        "own"
      ],
      [
        "ou",
        "se"
      ],
      [
        "n",
        "y"
      ],
      [
        "Ġf",
        "ind"
      ],
      [
        "Ġc",
        "are"
      ],
      [
        "Ġbe",
        "c"
      ],
      [
        "is",
        "t"
      ],
      [
        "Ġth",
        "an"
      ],
      [
        "Ġfe",
        "el"
      ],
      [
        "a",
        "p"
      ],
      [
        "u",
        "e"
      ],
      [
        "u",
        "dd"
      ],
      [
        "nn",
        "a"
      ],
      [
        "Ġd",
        "ad"
      ],
      [
        "Ġa",
        "b"
      ],
      [
        "The",
        "y"
      ],
      [
        "Ġm",
        "y"
      ],
      [
        "Ġloo",
        "k"
      ],
      [
        "Ġ",
        "ke"
      ],
      [
        "ou",
        "r"
      ],
      [
        "Ġw",
        "ill"
      ],
      [
        "ar",
        "n"
      ],
      [
        "Ġg",
        "r"
      ],
      [
        "u",
        "s"
      ],
      [
        "nd",
        "er"
      ],
      [
        "Ġg",
        "ra"
      ],
      [
        "way",
        "s"
      ],
      [
        "es",
        "s"
      ],
      [
        "Ġdid",
        "n"
      ],
      [
        "Ġp",
        "o"
      ],
      [
        "f",
        "e"
      ],
      [
        "Ġal",
        "ways"
      ],
      [
        "Ġtoo",
        "k"
      ],
      [
        "Ġab",
        "out"
      ],
      [
        "an",
        "t"
      ],
      [
        "b",
        "b"
      ],
      [
        "ĠS",
        "am"
      ],
      [
        "Ġl",
        "ot"
      ],
      [
        "Ġmom",
        "my"
      ],
      [
        "Ġtoy",
        "s"
      ],
      [
        "Ġkn",
        "e"
      ],
      [
        "er",
        "s"
      ],
      [
        "is",
        "e"
      ],
      [
        "it",
        "e"
      ],
      [
        "Ġout",
        "side"
      ],
      [
        "Ġtre",
        "e"
      ],
      [
        "Ġ",
        "F"
      ],
      [
        "Ġth",
        "ought"
      ],
      [
        "Ġb",
        "all"
      ],
      [
        "Ġm",
        "ore"
      ],
      [
        "ec",
        "i"
      ],
      [
        "en",
        "ed"
      ],
      [
        "c",
        "hed"
      ],
      [
        "Ġt",
        "a"
      ],
      [
        "Ġo",
        "ld"
      ],
      [
        "Ġh",
        "o"
      ],
      [
        "Ġle",
        "arn"
      ],
      [
        "re",
        "t"
      ],
      [
        "Ġin",
        "t"
      ],
      [
        "g",
        "ed"
      ],
      [
        "Ġkn",
        "ow"
      ],
      [
        "Ġla",
        "ug"
      ],
      [
        "Ġt",
        "ake"
      ],
      [
        "eci",
        "al"
      ],
      [
        "Ġsp",
        "ecial"
      ],
      [
        "Ġs",
        "or"
      ],
      [
        "Ġc",
        "at"
      ],
      [
        "udd",
        "en"
      ],
      [
        "ĠM",
        "ax"
      ],
      [
        "Ġkne",
        "w"
      ],
      [
        "i",
        "ve"
      ],
      [
        "i",
        "a"
      ],
      [
        "Ġp",
        "e"
      ],
      [
        "Ġan",
        "y"
      ],
      [
        "udden",
        "ly"
      ],
      [
        "Ġt",
        "r"
      ],
      [
        "f",
        "ter"
      ],
      [
        "Ġh",
        "ow"
      ],
      [
        "m",
        "a"
      ],
      [
        "Ġsh",
        "ow"
      ],
      [
        "in",
        "k"
      ],
      [
        "ĠS",
        "ara"
      ],
      [
        "Ġsor",
        "ry"
      ],
      [
        "Ġt",
        "w"
      ],
      [
        "B",
        "ut"
      ],
      [
        "Ġmu",
        "ch"
      ],
      [
        "a",
        "u"
      ],
      [
        "is",
        "h"
      ],
      [
        "Ġr",
        "un"
      ],
      [
        "a",
        "nd"
      ],
      [
        "ĠA",
        "nna"
      ],
      [
        "Ġha",
        "nd"
      ],
      [
        "Ġs",
        "l"
      ],
      [
        "v",
        "en"
      ],
      [
        "Ġh",
        "ouse"
      ],
      [
        "Ġo",
        "r"
      ],
      [
        "Ġo",
        "p"
      ],
      [
        "Ġs",
        "k"
      ],
      [
        "Ġm",
        "o"
      ],
      [
        "Ġcl",
        "o"
      ],
      [
        "Ġs",
        "un"
      ],
      [
        "Ġint",
        "o"
      ],
      [
        "Ġt",
        "ried"
      ],
      [
        "Ġin",
        "side"
      ],
      [
        "at",
        "e"
      ],
      [
        "Ġto",
        "ld"
      ],
      [
        "Ġwa",
        "ter"
      ],
      [
        "Ġth",
        "is"
      ],
      [
        "Ġ",
        "en"
      ],
      [
        "an",
        "k"
      ],
      [
        "Ġ",
        "if"
      ],
      [
        "Ġpr",
        "oud"
      ],
      [
[...]
